{
  "mode": "subword",
  "vocab": {
    "[PAD]": 0,
    "[UNK]": 1,
    "'": 2,
    "##'": 3,
    "0": 4,
    "##0": 5,
    "1": 6,
    "##1": 7,
    "2": 8,
    "##2": 9,
    "3": 10,
    "##3": 11,
    "4": 12,
    "##4": 13,
    "5": 14,
    "##5": 15,
    "6": 16,
    "##6": 17,
    "7": 18,
    "##7": 19,
    "8": 20,
    "##8": 21,
    "9": 22,
    "##9": 23,
    "a": 24,
    "##a": 25,
    "b": 26,
    "##b": 27,
    "c": 28,
    "##c": 29,
    "d": 30,
    "##d": 31,
    "e": 32,
    "##e": 33,
    "f": 34,
    "##f": 35,
    "g": 36,
    "##g": 37,
    "h": 38,
    "##h": 39,
    "i": 40,
    "##i": 41,
    "j": 42,
    "##j": 43,
    "k": 44,
    "##k": 45,
    "l": 46,
    "##l": 47,
    "m": 48,
    "##m": 49,
    "n": 50,
    "##n": 51,
    "o": 52,
    "##o": 53,
    "p": 54,
    "##p": 55,
    "q": 56,
    "##q": 57,
    "r": 58,
    "##r": 59,
    "s": 60,
    "##s": 61,
    "t": 62,
    "##t": 63,
    "u": 64,
    "##u": 65,
    "v": 66,
    "##v": 67,
    "w": 68,
    "##w": 69,
    "x": 70,
    "##x": 71,
    "y": 72,
    "##y": 73,
    "z": 74,
    "##z": 75,
    "hearing": 76,
    "##in": 77,
    "##earing": 78,
    "hearin": 79,
    "##ing": 80,
    "reminder": 81,
    "##ou": 82,
    "the": 83,
    "##ea": 84,
    "##aring": 85,
    "##earin": 86,
    "heari": 87,
    "reminde": 88,
    "##eminder": 89,
    "my": 90,
    "remind": 91,
    "please": 92,
    "##ring": 93,
    "you": 94,
    "##he": 95,
    "hear": 96,
    "##eminde": 97,
    "##minder": 98,
    "th": 99,
    "##arin": 100,
    "##eari": 101,
    "aid": 102,
    "##ng": 103,
    "remin": 104,
    "##emind": 105,
    "##lease": 106,
    "pleas": 107,
    "to": 108,
    "##ar": 109,
    "##ear": 110,
    "##minde": 111,
    "##nd": 112,
    "##inder": 113,
    "##rin": 114,
    "he": 115,
    "##ease": 116,
    "hea": 117,
    "##mind": 118,
    "remi": 119,
    "##emin": 120,
    "##leas": 121,
    "plea": 122,
    "##ari": 123,
    "##id": 124,
    "yo": 125,
    "##min": 126,
    "##ind": 127,
    "##nder": 128,
    "##er": 129,
    "##inde": 130,
    "volume": 131,
    "ai": 132,
    "##an": 133,
    "rem": 134,
    "##ase": 135,
    "aids": 136,
    "##eas": 137,
    "##ri": 138,
    "##le": 139,
    "##lea": 140,
    "can": 141,
    "##emi": 142,
    "##ould": 143,
    "ple": 144,
    "volum": 145,
    "##olume": 146,
    "##der": 147,
    "re": 148,
    "##nde": 149,
    "##se": 150,
    "##as": 151,
    "##on": 152,
    "##em": 153,
    "##mi": 154,
    "ca": 155,
    "##ids": 156,
    "volu": 157,
    "##olum": 158,
    "##lume": 159,
    "turn": 160,
    "##te": 161,
    "##re": 162,
    "on": 163,
    "stream": 164,
    "##hone": 165,
    "##oul": 166,
    "##uld": 167,
    "##ro": 168,
    "pl": 169,
    "##de": 170,
    "device": 171,
    "could": 172,
    "sound": 173,
    "##ne": 174,
    "##one": 175,
    "##ow": 176,
    "##ic": 177,
    "strea": 178,
    "##tream": 179,
    "right": 180,
    "##ound": 181,
    "##ume": 182,
    "##et": 183,
    "##urn": 184,
    "##olu": 185,
    "vol": 186,
    "##lum": 187,
    "##om": 188,
    "tur": 189,
    "##ds": 190,
    "devic": 191,
    "##evice": 192,
    "me": 193,
    "##hon": 194,
    "##me": 195,
    "##rea": 196,
    "coul": 197,
    "##or": 198,
    "soun": 199,
    "streamin": 200,
    "##treaming": 201,
    "would": 202,
    "##ur": 203,
    "##ul": 204,
    "phone": 205,
    "##ight": 206,
    "from": 207,
    "co": 208,
    "##is": 209,
    "stre": 210,
    "##ream": 211,
    "##trea": 212,
    "##ld": 213,
    "righ": 214,
    "do": 215,
    "st": 216,
    "left": 217,
    "##reaming": 218,
    "streami": 219,
    "##treamin": 220,
    "##ut": 221,
    "##at": 222,
    "how": 223,
    "##und": 224,
    "devi": 225,
    "##evic": 226,
    "##vice": 227,
    "##oun": 228,
    "##um": 229,
    "##ho": 230,
    "##st": 231,
    "##onnect": 232,
    "##el": 233,
    "help": 234,
    "like": 235,
    "program": 236,
    "off": 237,
    "woul": 238,
    "cou": 239,
    "##rn": 240,
    "phon": 241,
    "hey": 242,
    "ho": 243,
    "##ol": 244,
    "##ck": 245,
    "sou": 246,
    "##reamin": 247,
    "##eaming": 248,
    "##treami": 249,
    "vo": 250,
    "##ght": 251,
    "##am": 252,
    "##es": 253,
    "##phone": 254,
    "devices": 255,
    "##igh": 256,
    "##lu": 257,
    "##evi": 258,
    "##ed": 259,
    "##rom": 260,
    "fro": 261,
    "tu": 262,
    "##gh": 263,
    "str": 264,
    "need": 265,
    "##tre": 266,
    "##ice": 267,
    "##io": 268,
    "##eam": 269,
    "audio": 270,
    "progra": 271,
    "##rogram": 272,
    "rig": 273,
    "##ke": 274,
    "##ce": 275,
    "##onnec": 276,
    "##nnect": 277,
    "lef": 278,
    "##eft": 279,
    "down": 280,
    "li": 281,
    "le": 282,
    "so": 283,
    "switch": 284,
    "##ute": 285,
    "want": 286,
    "##en": 287,
    "##evices": 288,
    "dev": 289,
    "##vic": 290,
    "connect": 291,
    "##aming": 292,
    "##reami": 293,
    "##eamin": 294,
    "##ti": 295,
    "##un": 296,
    "hel": 297,
    "##ike": 298,
    "##eminders": 299,
    "of": 300,
    "##elp": 301,
    "lik": 302,
    "set": 303,
    "wou": 304,
    "##nt": 305,
    "##phon": 306,
    "##it": 307,
    "pho": 308,
    "##ming": 309,
    "##tion": 310,
    "##ec": 311,
    "##ee": 312,
    "audi": 313,
    "progr": 314,
    "##rogra": 315,
    "##ogram": 316,
    "change": 317,
    "complete": 318,
    "##itch": 319,
    "##vi": 320,
    "wa": 321,
    "for": 322,
    "switc": 323,
    "##witch": 324,
    "##udio": 325,
    "##eed": 326,
    "##ant": 327,
    "se": 328,
    "##ff": 329,
    "in": 330,
    "##ion": 331,
    "memory": 332,
    "##onne": 333,
    "##nnec": 334,
    "##nect": 335,
    "connec": 336,
    "wo": 337,
    "##ey": 338,
    "##minders": 339,
    "##ft": 340,
    "##vices": 341,
    "nee": 342,
    "##us": 343,
    "##ack": 344,
    "ri": 345,
    "fr": 346,
    "de": 347,
    "quick": 348,
    "##amin": 349,
    "through": 350,
    "chang": 351,
    "##own": 352,
    "dow": 353,
    "##ig": 354,
    "##eami": 355,
    "##ate": 356,
    "##ll": 357,
    "##ev": 358,
    "##ht": 359,
    "back": 360,
    "##emo": 361,
    "complet": 362,
    "##omplete": 363,
    "wan": 364,
    "##dio": 365,
    "##tr": 366,
    "##di": 367,
    "##ch": 368,
    "##ef": 369,
    "##here": 370,
    "##hange": 371,
    "memor": 372,
    "##ere": 373,
    "an": 374,
    "##ha": 375,
    "prog": 376,
    "##rogr": 377,
    "##ogra": 378,
    "##gram": 379,
    "##ra": 380,
    "##inders": 381,
    "##ry": 382,
    "ne": 383,
    "##emory": 384,
    "conne": 385,
    "##lp": 386,
    "mute": 387,
    "##pho": 388,
    "quickly": 389,
    "ma": 390,
    "swit": 391,
    "##witc": 392,
    "and": 393,
    "##tch": 394,
    "i'": 395,
    "throug": 396,
    "##hrough": 397,
    "##tio": 398,
    "aud": 399,
    "##udi": 400,
    "##ot": 401,
    "##ices": 402,
    "start": 403,
    "##nders": 404,
    "##nne": 405,
    "this": 406,
    "##itc": 407,
    "comple": 408,
    "##omplet": 409,
    "##mplete": 410,
    "##ect": 411,
    "both": 412,
    "stop": 413,
    "qui": 414,
    "up": 415,
    "quic": 416,
    "##uick": 417,
    "##ik": 418,
    "micropho": 419,
    "##icrophon": 420,
    "##crophone": 421,
    "chan": 422,
    "##to": 423,
    "##onn": 424,
    "##nec": 425,
    "##hang": 426,
    "i'd": 427,
    "##op": 428,
    "##al": 429,
    "##ac": 430,
    "##her": 431,
    "##ting": 432,
    "##oo": 433,
    "##ud": 434,
    "##ication": 435,
    "##mo": 436,
    "##ami": 437,
    "ph": 438,
    "fo": 439,
    "##top": 440,
    "listen": 441,
    "trying": 442,
    "##ust": 443,
    "quickl": 444,
    "##uickly": 445,
    "kindly": 446,
    "##ange": 447,
    "ch": 448,
    "##th": 449,
    "##ly": 450,
    "comp": 451,
    "memo": 452,
    "##emor": 453,
    "##ter": 454,
    "##mor": 455,
    "##ay": 456,
    "pro": 457,
    "bac": 458,
    "where": 459,
    "##ake": 460,
    "check": 461,
    "##ation": 462,
    "##art": 463,
    "throu": 464,
    "##hroug": 465,
    "##rough": 466,
    "android": 467,
    "##mory": 468,
    "##ick": 469,
    "fin": 470,
    "conn": 471,
    "##crease": 472,
    "microph": 473,
    "##icropho": 474,
    "##crophon": 475,
    "##rophone": 476,
    "##ct": 477,
    "remote": 478,
    "thi": 479,
    "##cation": 480,
    "##la": 481,
    "disconne": 482,
    "##isconnec": 483,
    "##sconnect": 484,
    "##ve": 485,
    "mu": 486,
    "##plete": 487,
    "mark": 488,
    "compl": 489,
    "##omple": 490,
    "##mplet": 491,
    "##ces": 492,
    "com": 493,
    "connecti": 494,
    "##rog": 495,
    "##ogr": 496,
    "setting": 497,
    "list": 498,
    "##ram": 499,
    "##gra": 500,
    "star": 501,
    "let's": 502,
    "##nn": 503,
    "ear": 504,
    "##onnectio": 505,
    "##nnection": 506,
    "##tart": 507,
    "##wn": 508,
    "##ders": 509,
    "cha": 510,
    "wh": 511,
    "##icatio": 512,
    "mut": 513,
    "listenin": 514,
    "##istening": 515,
    "swi": 516,
    "##oth": 517,
    "alarm": 518,
    "##wit": 519,
    "ahead": 520,
    "##ge": 521,
    "##ist": 522,
    "sto": 523,
    "##ers": 524,
    "liste": 525,
    "##isten": 526,
    "##rying": 527,
    "##han": 528,
    "tryin": 529,
    "##his": 530,
    "##uickl": 531,
    "##ickly": 532,
    "kindl": 533,
    "##indly": 534,
    "##lete": 535,
    "bot": 536,
    "##connect": 537,
    "##ang": 538,
    "ta": 539,
    "##hat": 540,
    "##etting": 541,
    "##t's": 542,
    "##ning": 543,
    "androi": 544,
    "##ndroid": 545,
    "##cat": 546,
    "find": 547,
    "disconn": 548,
    "##isconne": 549,
    "##sconnec": 550,
    "##uic": 551,
    "con": 552,
    "##let": 553,
    "microp": 554,
    "##icroph": 555,
    "##cropho": 556,
    "##rophon": 557,
    "##ophone": 558,
    "medicati": 559,
    "##edicatio": 560,
    "##dication": 561,
    "##ui": 562,
    "##onnecti": 563,
    "au": 564,
    "##ni": 565,
    "##nnectio": 566,
    "##nection": 567,
    "##tin": 568,
    "just": 569,
    "##creas": 570,
    "##rease": 571,
    "##ough": 572,
    "##ph": 573,
    "remot": 574,
    "##emote": 575,
    "##rs": 576,
    "##tc": 577,
    "settin": 578,
    "##rou": 579,
    "##catio": 580,
    "lo": 581,
    "wher": 582,
    "listeni": 583,
    "##istenin": 584,
    "##stening": 585,
    "pr": 586,
    "chec": 587,
    "##heck": 588,
    "##il": 589,
    "thro": 590,
    "qu": 591,
    "##atio": 592,
    "ba": 593,
    "##hrou": 594,
    "##roug": 595,
    "tr": 596,
    "##hi": 597,
    "##nge": 598,
    "##rk": 599,
    "##ory": 600,
    "##mple": 601,
    "sta": 602,
    "mem": 603,
    "##rt": 604,
    "##ete": 605,
    "##omp": 606,
    "##plet": 607,
    "##ompl": 608,
    "##icati": 609,
    "mi": 610,
    "##ss": 611,
    "thr": 612,
    "##ta": 613,
    "task": 614,
    "call": 615,
    "##eat": 616,
    "##cr": 617,
    "##si": 618,
    "let'": 619,
    "##et's": 620,
    "music": 621,
    "meeting": 622,
    "##ark": 623,
    "what": 624,
    "mobile": 625,
    "##connec": 626,
    "go": 627,
    "##'d": 628,
    "##ying": 629,
    "ea": 630,
    "##iste": 631,
    "whe": 632,
    "remo": 633,
    "kind": 634,
    "##pl": 635,
    "medicat": 636,
    "##edicati": 637,
    "##dicatio": 638,
    "increase": 639,
    "alar": 640,
    "##larm": 641,
    "##tting": 642,
    "di": 643,
    "##og": 644,
    "ahea": 645,
    "##head": 646,
    "mar": 647,
    "discon": 648,
    "##isconn": 649,
    "##sconne": 650,
    "fi": 651,
    "##ca": 652,
    "##ection": 653,
    "##ening": 654,
    "##ad": 655,
    "##nnecti": 656,
    "##ettin": 657,
    "##ak": 658,
    "##ai": 659,
    "andro": 660,
    "##ndroi": 661,
    "##droid": 662,
    "tel": 663,
    "lis": 664,
    "bo": 665,
    "##tar": 666,
    "##sten": 667,
    "##ask": 668,
    "al": 669,
    "##nectio": 670,
    "make": 671,
    "##ryin": 672,
    "##'s": 673,
    "tryi": 674,
    "micro": 675,
    "##icrop": 676,
    "##croph": 677,
    "##ropho": 678,
    "##ophon": 679,
    "create": 680,
    "##ckly": 681,
    "##ickl": 682,
    "##indl": 683,
    "##ndly": 684,
    "##isteni": 685,
    "##stenin": 686,
    "##tening": 687,
    "##ple": 688,
    "##icat": 689,
    "finish": 690,
    "##mpl": 691,
    "setti": 692,
    "i'm": 693,
    "##ati": 694,
    "##mp": 695,
    "televisi": 696,
    "##elevisio": 697,
    "##levision": 698,
    "bring": 699,
    "tomorrow": 700,
    "track": 701,
    "tele": 702,
    "##all": 703,
    "##ten": 704,
    "cal": 705,
    "##crea": 706,
    "##reas": 707,
    "##ell": 708,
    "##emot": 709,
    "##mote": 710,
    "##ugh": 711,
    "##cati": 712,
    "##ste": 713,
    "mic": 714,
    "##eeting": 715,
    "meetin": 716,
    "increas": 717,
    "##ncrease": 718,
    "tra": 719,
    "##ome": 720,
    "##nin": 721,
    "ki": 722,
    "##gr": 723,
    "let": 724,
    "unmute": 725,
    "adjust": 726,
    "telephon": 727,
    "##elephone": 728,
    "medica": 729,
    "##edicat": 730,
    "##dicati": 731,
    "locate": 732,
    "medic": 733,
    "mobil": 734,
    "##obile": 735,
    "##wi": 736,
    "sw": 737,
    "disco": 738,
    "feature": 739,
    "##ead": 740,
    "##conne": 741,
    "dis": 742,
    "##ent": 743,
    "##ction": 744,
    "jus": 745,
    "settings": 746,
    "##oug": 747,
    "##ile": 748,
    "che": 749,
    "##iscon": 750,
    "##sconn": 751,
    "take": 752,
    "##hec": 753,
    "##eck": 754,
    "musi": 755,
    "##usic": 756,
    "##hro": 757,
    "##hea": 758,
    "##ectio": 759,
    "is": 760,
    "mo": 761,
    "##necti": 762,
    "##oi": 763,
    "televis": 764,
    "##elevisi": 765,
    "##levisio": 766,
    "##evision": 767,
    "creat": 768,
    "##ttin": 769,
    "tomorro": 770,
    "##omorrow": 771,
    "##ele": 772,
    "##reate": 773,
    "audioboo": 774,
    "##udiobook": 775,
    "with": 776,
    "##steni": 777,
    "##tenin": 778,
    "##enin": 779,
    "tas": 780,
    "decrease": 781,
    "##etti": 782,
    "finis": 783,
    "##inish": 784,
    "##t'": 785,
    "andr": 786,
    "##ndro": 787,
    "##droi": 788,
    "##roid": 789,
    "##icro": 790,
    "##cti": 791,
    "##et'": 792,
    "work": 793,
    "wha": 794,
    "kitchen": 795,
    "micr": 796,
    "##crop": 797,
    "##roph": 798,
    "##opho": 799,
    "##est": 800,
    "locat": 801,
    "out": 802,
    "##yin": 803,
    "##lar": 804,
    "room": 805,
    "loud": 806,
    "te": 807,
    "done": 808,
    "kin": 809,
    "telepho": 810,
    "##elephon": 811,
    "##lephone": 812,
    "medi": 813,
    "increa": 814,
    "##ncreas": 815,
    "ala": 816,
    "##arm": 817,
    "ahe": 818,
    "sett": 819,
    "play": 820,
    "##eetin": 821,
    "##eting": 822,
    "brin": 823,
    "##ettings": 824,
    "meeti": 825,
    "##eate": 826,
    "##kly": 827,
    "##rack": 828,
    "##ndl": 829,
    "mak": 830,
    "featur": 831,
    "##eature": 832,
    "trac": 833,
    "smartpho": 834,
    "##martphon": 835,
    "##artphone": 836,
    "try": 837,
    "every": 838,
    "##dicat": 839,
    "somewher": 840,
    "##omewhere": 841,
    "unmut": 842,
    "##nmute": 843,
    "##ryi": 844,
    "##dly": 845,
    "adjus": 846,
    "##djust": 847,
    "##ica": 848,
    "un": 849,
    "minutes": 850,
    "##ckl": 851,
    "##edica": 852,
    "##ocate": 853,
    "##cre": 854,
    "##rop": 855,
    "show": 856,
    "##hr": 857,
    "##os": 858,
    "audiobo": 859,
    "##udioboo": 860,
    "##diobook": 861,
    "##tt": 862,
    "computer": 863,
    "##ote": 864,
    "televi": 865,
    "##elevis": 866,
    "##levisi": 867,
    "##evisio": 868,
    "##vision": 869,
    "working": 870,
    "##nc": 871,
    "decreas": 872,
    "##ecrease": 873,
    "cellphon": 874,
    "##ellphone": 875,
    "##edic": 876,
    "tomorr": 877,
    "##omorro": 878,
    "##morrow": 879,
    "quiet": 880,
    "restore": 881,
    "finished": 882,
    "mobi": 883,
    "##obil": 884,
    "##bile": 885,
    "at": 886,
    "disc": 887,
    "##isco": 888,
    "##conn": 889,
    "##ver": 890,
    "##ble": 891,
    "##ctio": 892,
    "##ompletel": 893,
    "##mpletely": 894,
    "##ore": 895,
    "##out": 896,
    "##mot": 897,
    "##ecti": 898,
    "##ain": 899,
    "wor": 900,
    "##scon": 901,
    "##sk": 902,
    "podcast": 903,
    "##cate": 904,
    "don": 905,
    "##ess": 906,
    "minute": 907,
    "kitche": 908,
    "##itchen": 909,
    "cell": 910,
    "##very": 911,
    "##ast": 912,
    "##ery": 913,
    "teleph": 914,
    "##elepho": 915,
    "##lephon": 916,
    "##ephone": 917,
    "##ett": 918,
    "cr": 919,
    "##reat": 920,
    "sh": 921,
    "##nish": 922,
    "silence": 923,
    "##chedule": 924,
    "##tu": 925,
    "crea": 926,
    "##sic": 927,
    "##od": 928,
    "smartph": 929,
    "##martpho": 930,
    "##artphon": 931,
    "##rtphone": 932,
    "##che": 933,
    "##ook": 934,
    "##ug": 935,
    "somewhe": 936,
    "##omewher": 937,
    "##mewhere": 938,
    "##usi": 939,
    "sho": 940,
    "way": 941,
    "##inis": 942,
    "##teni": 943,
    "##ttings": 944,
    "incre": 945,
    "##ncrea": 946,
    "tak": 947,
    "##king": 948,
    "fini": 949,
    "##day": 950,
    "##ie": 951,
    "mus": 952,
    "##ature": 953,
    "##inutes": 954,
    "pla": 955,
    "la": 956,
    "##ndr": 957,
    "##'m": 958,
    "loca": 959,
    "##ocat": 960,
    "no": 961,
    "##able": 962,
    "compute": 963,
    "##omputer": 964,
    "youtube": 965,
    "featu": 966,
    "##eatur": 967,
    "cellpho": 968,
    "##ellphon": 969,
    "##llphone": 970,
    "##tti": 971,
    "audiob": 972,
    "##udiobo": 973,
    "##dioboo": 974,
    "##iobook": 975,
    "finishe": 976,
    "##inished": 977,
    "##ob": 978,
    "res": 979,
    "workin": 980,
    "##orking": 981,
    "wit": 982,
    "##ith": 983,
    "home": 984,
    "##ork": 985,
    "##eni": 986,
    "meet": 987,
    "##eeti": 988,
    "##etin": 989,
    "decrea": 990,
    "##ecreas": 991,
    "##cro": 992,
    "ever": 993,
    "##mpletel": 994,
    "##pletely": 995,
    "restor": 996,
    "##estore": 997,
    "##dro": 998,
    "##roi": 999,
    "##oid": 1000,
    "##icr": 1001,
    "##ise": 1002,
    "cu": 1003,
    "##mute": 1004,
    "##dica": 1005,
    "unmu": 1006,
    "##nmut": 1007,
    "adju": 1008,
    "##djus": 1009,
    "##just": 1010,
    "telev": 1011,
    "##elevi": 1012,
    "##levis": 1013,
    "##evisi": 1014,
    "##visio": 1015,
    "##ision": 1016,
    "##oud": 1017,
    "##oph": 1018,
    "##mber": 1019,
    "lou": 1020,
    "tomor": 1021,
    "##omorr": 1022,
    "##morro": 1023,
    "##orrow": 1024,
    "##iv": 1025,
    "roo": 1026,
    "##oom": 1027,
    "search": 1028,
    "##edi": 1029,
    "eve": 1030,
    "podcas": 1031,
    "##odcast": 1032,
    "med": 1033,
    "ju": 1034,
    "tinnitus": 1035,
    "##sh": 1036,
    "living": 1037,
    "##lay": 1038,
    "##rm": 1039,
    "##sc": 1040,
    "##obi": 1041,
    "##oc": 1042,
    "laptop": 1043,
    "##rac": 1044,
    "around": 1045,
    "##hed": 1046,
    "bri": 1047,
    "silenc": 1048,
    "##ilence": 1049,
    "##chedul": 1050,
    "##hedule": 1051,
    "dismiss": 1052,
    "##sion": 1053,
    "minut": 1054,
    "##inute": 1055,
    "kitch": 1056,
    "##itche": 1057,
    "##tchen": 1058,
    "some": 1059,
    "quie": 1060,
    "##uiet": 1061,
    "handset": 1062,
    "nearby": 1063,
    "smartp": 1064,
    "##martph": 1065,
    "##artpho": 1066,
    "##rtphon": 1067,
    "##tphone": 1068,
    "##tes": 1069,
    "rest": 1070,
    "that": 1071,
    "somewh": 1072,
    "##omewhe": 1073,
    "##mewher": 1074,
    "##ewhere": 1075,
    "schedule": 1076,
    "telep": 1077,
    "##eleph": 1078,
    "##lepho": 1079,
    "##ephon": 1080,
    "player": 1081,
    "notifica": 1082,
    "##otificat": 1083,
    "##tificati": 1084,
    "##ificatio": 1085,
    "##fication": 1086,
    "##edu": 1087,
    "explain": 1088,
    "house": 1089,
    "recurrin": 1090,
    "##ecurring": 1091,
    "car": 1092,
    "##how": 1093,
    "##tings": 1094,
    "##ave": 1095,
    "clea": 1096,
    "##rr": 1097,
    "##li": 1098,
    "current": 1099,
    "all": 1100,
    "##end": 1101,
    "comput": 1102,
    "##ompute": 1103,
    "##mputer": 1104,
    "youtub": 1105,
    "##outube": 1106,
    "##nce": 1107,
    "##hen": 1108,
    "##dic": 1109,
    "##co": 1110,
    "##bil": 1111,
    "reduce": 1112,
    "##ture": 1113,
    "cellph": 1114,
    "##ellpho": 1115,
    "##llphon": 1116,
    "##lphone": 1117,
    "tablet": 1118,
    "##nutes": 1119,
    "##rking": 1120,
    "##ini": 1121,
    "##inishe": 1122,
    "##nished": 1123,
    "mob": 1124,
    "##con": 1125,
    "unlink": 1126,
    "lower": 1127,
    "ou": 1128,
    "ro": 1129,
    "##atur": 1130,
    "##isc": 1131,
    "##sco": 1132,
    "##ran": 1133,
    "##tment": 1134,
    "what's": 1135,
    "##yi": 1136,
    "##hat's": 1137,
    "##be": 1138,
    "clear": 1139,
    "##ish": 1140,
    "video": 1141,
    "loude": 1142,
    "message": 1143,
    "incr": 1144,
    "##ncre": 1145,
    "##pletel": 1146,
    "##letely": 1147,
    "ah": 1148,
    "##udiob": 1149,
    "##diobo": 1150,
    "##ioboo": 1151,
    "##obook": 1152,
    "does": 1153,
    "##tor": 1154,
    "##dl": 1155,
    "tinnitu": 1156,
    "##innitus": 1157,
    "worki": 1158,
    "##orkin": 1159,
    "##ment": 1160,
    "##scriptio": 1161,
    "##cription": 1162,
    "cel": 1163,
    "##da": 1164,
    "##earch": 1165,
    "decre": 1166,
    "##ecrea": 1167,
    "##kl": 1168,
    "wi": 1169,
    "##nis": 1170,
    "again": 1171,
    "resto": 1172,
    "##estor": 1173,
    "##store": 1174,
    "##iving": 1175,
    "feat": 1176,
    "##eatu": 1177,
    "iphone": 1178,
    "cre": 1179,
    "##ure": 1180,
    "hou": 1181,
    "##round": 1182,
    "leave": 1183,
    "##dcast": 1184,
    "silen": 1185,
    "raise": 1186,
    "searc": 1187,
    "schedul": 1188,
    "podca": 1189,
    "##odcas": 1190,
    "##ings": 1191,
    "dismis": 1192,
    "##ismiss": 1193,
    "it": 1194,
    "notific": 1195,
    "##otifica": 1196,
    "##tificat": 1197,
    "##ificati": 1198,
    "##ficatio": 1199,
    "##kin": 1200,
    "##no": 1201,
    "handse": 1202,
    "##andset": 1203,
    "livin": 1204,
    "##where": 1205,
    "recurri": 1206,
    "##ecurrin": 1207,
    "##curring": 1208,
    "number": 1209,
    "smart": 1210,
    "lapto": 1211,
    "##aptop": 1212,
    "ad": 1213,
    "##ive": 1214,
    "aroun": 1215,
    "get": 1216,
    "##elev": 1217,
    "##levi": 1218,
    "##evis": 1219,
    "##visi": 1220,
    "##isio": 1221,
    "##ide": 1222,
    "##ilenc": 1223,
    "##lence": 1224,
    "##chedu": 1225,
    "##hedul": 1226,
    "##edule": 1227,
    "##eet": 1228,
    "loc": 1229,
    "##oca": 1230,
    "##abl": 1231,
    "explai": 1232,
    "##xplain": 1233,
    "walk": 1234,
    "tomo": 1235,
    "##omor": 1236,
    "##morr": 1237,
    "##orro": 1238,
    "##rrow": 1239,
    "send": 1240,
    "##bl": 1241,
    "cut": 1242,
    "nearb": 1243,
    "##earby": 1244,
    "here": 1245,
    "##martp": 1246,
    "##artph": 1247,
    "##rtpho": 1248,
    "##tphon": 1249,
    "remember": 1250,
    "end": 1251,
    "somew": 1252,
    "##omewh": 1253,
    "##mewhe": 1254,
    "##ewher": 1255,
    "##sto": 1256,
    "cl": 1257,
    "playe": 1258,
    "##layer": 1259,
    "##ssi": 1260,
    "curren": 1261,
    "##urrent": 1262,
    "##ill": 1263,
    "hom": 1264,
    "br": 1265,
    "mee": 1266,
    "##eti": 1267,
    "##fte": 1268,
    "##tche": 1269,
    "latest": 1270,
    "table": 1271,
    "radio": 1272,
    "minu": 1273,
    "##inut": 1274,
    "##nute": 1275,
    "##ower": 1276,
    "kitc": 1277,
    "##chen": 1278,
    "ra": 1279,
    "app": 1280,
    "close": 1281,
    "##mut": 1282,
    "activ": 1283,
    "##tur": 1284,
    "reduc": 1285,
    "compu": 1286,
    "##omput": 1287,
    "##mpute": 1288,
    "##puter": 1289,
    "youtu": 1290,
    "##outub": 1291,
    "##utube": 1292,
    "unm": 1293,
    "##nmu": 1294,
    "adj": 1295,
    "##dju": 1296,
    "##jus": 1297,
    "##elep": 1298,
    "##leph": 1299,
    "##epho": 1300,
    "##ouse": 1301,
    "##educe": 1302,
    "##age": 1303,
    "##mbe": 1304,
    "##ber": 1305,
    "messag": 1306,
    "##essage": 1307,
    "tha": 1308,
    "##scripti": 1309,
    "##criptio": 1310,
    "##ription": 1311,
    "loudness": 1312,
    "##lo": 1313,
    "cellp": 1314,
    "##ellph": 1315,
    "##llpho": 1316,
    "##lphon": 1317,
    "##ablet": 1318,
    "en": 1319,
    "##and": 1320,
    "hous": 1321,
    "##ok": 1322,
    "##nishe": 1323,
    "##ished": 1324,
    "unlin": 1325,
    "##nlink": 1326,
    "softe": 1327,
    "as": 1328,
    "tinnit": 1329,
    "##innitu": 1330,
    "##nnitus": 1331,
    "coming": 1332,
    "what'": 1333,
    "##urr": 1334,
    "##iss": 1335,
    "personal": 1336,
    "adjustme": 1337,
    "##djustmen": 1338,
    "##justment": 1339,
    "##fter": 1340,
    "##letel": 1341,
    "##etely": 1342,
    "##ep": 1343,
    "##dr": 1344,
    "##row": 1345,
    "kno": 1346,
    "morning": 1347,
    "##utes": 1348,
    "##stor": 1349,
    "##sio": 1350,
    "som": 1351,
    "##uie": 1352,
    "##iet": 1353,
    "##rkin": 1354,
    "active": 1355,
    "lowe": 1356,
    "##tmen": 1357,
    "##use": 1358,
    "notifi": 1359,
    "schedu": 1360,
    "##hat'": 1361,
    "##at's": 1362,
    "missing": 1363,
    "##lear": 1364,
    "##tore": 1365,
    "iphon": 1366,
    "late": 1367,
    "vide": 1368,
    "##ideo": 1369,
    "##ence": 1370,
    "##oude": 1371,
    "##otific": 1372,
    "##tifica": 1373,
    "##ificat": 1374,
    "##ficati": 1375,
    "cross": 1376,
    "##n't": 1377,
    "##ew": 1378,
    "there": 1379,
    "can't": 1380,
    "##ption": 1381,
    "recurr": 1382,
    "##ecurri": 1383,
    "##currin": 1384,
    "##urring": 1385,
    "##diob": 1386,
    "##iobo": 1387,
    "##oboo": 1388,
    "##book": 1389,
    "remembe": 1390,
    "##emember": 1391,
    "##ving": 1392,
    "##arch": 1393,
    "know": 1394,
    "##ched": 1395,
    "##orki": 1396,
    "ring": 1397,
    "cle": 1398,
    "##earc": 1399,
    "decr": 1400,
    "##ecre": 1401,
    "dismi": 1402,
    "##ismis": 1403,
    "##smiss": 1404,
    "##atu": 1405,
    "##oes": 1406,
    "agai": 1407,
    "##gain": 1408,
    "##ater": 1409,
    "##esto": 1410,
    "##oss": 1411,
    "hands": 1412,
    "##andse": 1413,
    "##ndset": 1414,
    "##ivin": 1415,
    "numbe": 1416,
    "##umber": 1417,
    "trans": 1418,
    "leav": 1419,
    "begin": 1420,
    "near": 1421,
    "##roun": 1422,
    "##eave": 1423,
    "##dcas": 1424,
    "##cast": 1425,
    "appointm": 1426,
    "##ppointme": 1427,
    "##pointmen": 1428,
    "##ointment": 1429,
    "be": 1430,
    "tell": 1431,
    "sile": 1432,
    "##ilen": 1433,
    "rais": 1434,
    "##aise": 1435,
    "expla": 1436,
    "##xplai": 1437,
    "##plain": 1438,
    "##alk": 1439,
    "##script": 1440,
    "sear": 1441,
    "possible": 1442,
    "daily": 1443,
    "##pt": 1444,
    "ev": 1445,
    "##bi": 1446,
    "podc": 1447,
    "##odca": 1448,
    "##tely": 1449,
    "calls": 1450,
    "inc": 1451,
    "##ncr": 1452,
    "##rent": 1453,
    "loudnes": 1454,
    "##oudness": 1455,
    "ugh": 1456,
    "sen": 1457,
    "##men": 1458,
    "livi": 1459,
    "##wher": 1460,
    "##ous": 1461,
    "doe": 1462,
    "curre": 1463,
    "##urren": 1464,
    "##rrent": 1465,
    "##omew": 1466,
    "smar": 1467,
    "##mart": 1468,
    "lapt": 1469,
    "##apto": 1470,
    "##ptop": 1471,
    "translat": 1472,
    "##pla": 1473,
    "##ink": 1474,
    "arou": 1475,
    "where's": 1476,
    "persona": 1477,
    "##ersonal": 1478,
    "##cripti": 1479,
    "##riptio": 1480,
    "##iption": 1481,
    "adjustm": 1482,
    "##djustme": 1483,
    "##justmen": 1484,
    "##ustment": 1485,
    "misplace": 1486,
    "##isplaced": 1487,
    "ipad": 1488,
    "##lenc": 1489,
    "##hedu": 1490,
    "##edul": 1491,
    "##dule": 1492,
    "prescrip": 1493,
    "##rescript": 1494,
    "##escripti": 1495,
    "lates": 1496,
    "##atest": 1497,
    "##du": 1498,
    "ha": 1499,
    "##gin": 1500,
    "##isi": 1501,
    "fea": 1502,
    "##earb": 1503,
    "##arby": 1504,
    "##artp": 1505,
    "##rtph": 1506,
    "##tpho": 1507,
    "##av": 1508,
    "rec": 1509,
    "##mewh": 1510,
    "##ewhe": 1511,
    "##nk": 1512,
    "quieter": 1513,
    "ip": 1514,
    "min": 1515,
    "##hing": 1516,
    "##laye": 1517,
    "##ayer": 1518,
    "messa": 1519,
    "##essag": 1520,
    "##ssage": 1521,
    "one": 1522,
    "cros": 1523,
    "##pp": 1524,
    "und": 1525,
    "tinni": 1526,
    "##innit": 1527,
    "##nnitu": 1528,
    "##nitus": 1529,
    "comin": 1530,
    "##oming": 1531,
    "##ngs": 1532,
    "##orr": 1533,
    "radi": 1534,
    "mornin": 1535,
    "##orning": 1536,
    "pu": 1537,
    "##ctiv": 1538,
    "tabl": 1539,
    "##adio": 1540,
    "soft": 1541,
    "tom": 1542,
    "person": 1543,
    "clos": 1544,
    "##lose": 1545,
    "today": 1546,
    "her": 1547,
    "##lev": 1548,
    "##vis": 1549,
    "##tel": 1550,
    "acti": 1551,
    "##ishe": 1552,
    "missin": 1553,
    "##issing": 1554,
    "redu": 1555,
    "##educ": 1556,
    "everyday": 1557,
    "##ompu": 1558,
    "##mput": 1559,
    "##pute": 1560,
    "##uter": 1561,
    "yout": 1562,
    "##outu": 1563,
    "##utub": 1564,
    "##tube": 1565,
    "shut": 1566,
    "##duce": 1567,
    "notif": 1568,
    "##ifica": 1569,
    "##ellp": 1570,
    "##llph": 1571,
    "##lpho": 1572,
    "##blet": 1573,
    "##scri": 1574,
    "undo": 1575,
    "wal": 1576,
    "##omo": 1577,
    "##rro": 1578,
    "##ivi": 1579,
    "##shed": 1580,
    "##here's": 1581,
    "##ctive": 1582,
    "unli": 1583,
    "##nlin": 1584,
    "##link": 1585,
    "##ofte": 1586,
    "rememb": 1587,
    "##emembe": 1588,
    "##member": 1589,
    "##omi": 1590,
    "hand": 1591,
    "dial": 1592,
    "customiz": 1593,
    "##otifi": 1594,
    "sched": 1595,
    "##bo": 1596,
    "last": 1597,
    "low": 1598,
    "appoint": 1599,
    "##ppointm": 1600,
    "##pointme": 1601,
    "##ointmen": 1602,
    "##intment": 1603,
    "##tific": 1604,
    "##ficat": 1605,
    "##etel": 1606,
    "##owe": 1607,
    "cro": 1608,
    "recur": 1609,
    "##ecurr": 1610,
    "##curri": 1611,
    "##urrin": 1612,
    "##rring": 1613,
    "possibl": 1614,
    "##ossible": 1615,
    "##wer": 1616,
    "##na": 1617,
    "noise": 1618,
    "##ember": 1619,
    "##our": 1620,
    "##inu": 1621,
    "##nut": 1622,
    "##if": 1623,
    "ce": 1624,
    "kit": 1625,
    "##ross": 1626,
    "##lep": 1627,
    "##mu": 1628,
    "not": 1629,
    "##ial": 1630,
    "transla": 1631,
    "##ranslat": 1632,
    "little": 1633,
    "louder": 1634,
    "ther": 1635,
    "fe": 1636,
    "##eph": 1637,
    "ipho": 1638,
    "loudne": 1639,
    "##oudnes": 1640,
    "##udness": 1641,
    "##ustomize": 1642,
    "misplac": 1643,
    "##isplace": 1644,
    "##splaced": 1645,
    "prescri": 1646,
    "##rescrip": 1647,
    "##escript": 1648,
    "po": 1649,
    "ge": 1650,
    "ar": 1651,
    "can'": 1652,
    "##an't": 1653,
    "##ptio": 1654,
    "mis": 1655,
    "where'": 1656,
    "##lin": 1657,
    "##scrip": 1658,
    "##cript": 1659,
    "##ost": 1660,
    "##ersona": 1661,
    "##rsonal": 1662,
    "##rans": 1663,
    "##djustm": 1664,
    "##justme": 1665,
    "##ustmen": 1666,
    "##stment": 1667,
    "##ab": 1668,
    "##ands": 1669,
    "dism": 1670,
    "##ismi": 1671,
    "##smis": 1672,
    "##miss": 1673,
    "##ki": 1674,
    "##ren": 1675,
    "##enc": 1676,
    "##ndse": 1677,
    "##dset": 1678,
    "##ates": 1679,
    "##rie": 1680,
    "##lls": 1681,
    "numb": 1682,
    "##umbe": 1683,
    "##rch": 1684,
    "tran": 1685,
    "##alls": 1686,
    "quiete": 1687,
    "##uieter": 1688,
    "begi": 1689,
    "##egin": 1690,
    "##ag": 1691,
    "dail": 1692,
    "expl": 1693,
    "route": 1694,
    "##ripti": 1695,
    "##iptio": 1696,
    "##ma": 1697,
    "##rki": 1698,
    "sc": 1699,
    "tv": 1700,
    "##ries": 1701,
    "##xpla": 1702,
    "##plai": 1703,
    "##lain": 1704,
    "put": 1705,
    "##ude": 1706,
    "##tme": 1707,
    "##apt": 1708,
    "##at'": 1709,
    "##aily": 1710,
    "nois": 1711,
    "everyda": 1712,
    "##veryday": 1713,
    "##ose": 1714,
    "##rning": 1715,
    "##vin": 1716,
    "lat": 1717,
    "vid": 1718,
    "##deo": 1719,
    "##boo": 1720,
    "dec": 1721,
    "afternoo": 1722,
    "##fternoon": 1723,
    "restaura": 1724,
    "##estauran": 1725,
    "##staurant": 1726,
    "vi": 1727,
    "##len": 1728,
    "##ely": 1729,
    "##iob": 1730,
    "##obo": 1731,
    "##sta": 1732,
    "##mb": 1733,
    "curr": 1734,
    "##urre": 1735,
    "##rren": 1736,
    "##arc": 1737,
    "lea": 1738,
    "##now": 1739,
    "after": 1740,
    "customi": 1741,
    "##ustomiz": 1742,
    "liv": 1743,
    "rin": 1744,
    "##hin": 1745,
    "##sage": 1746,
    "##test": 1747,
    "##ail": 1748,
    "##nm": 1749,
    "morni": 1750,
    "##ornin": 1751,
    "##ecr": 1752,
    "aga": 1753,
    "##gai": 1754,
    "##gi": 1755,
    "perso": 1756,
    "##erson": 1757,
    "sea": 1758,
    "ap": 1759,
    "kill": 1760,
    "##ppoint": 1761,
    "##mar": 1762,
    "##eav": 1763,
    "##cas": 1764,
    "about": 1765,
    "##ns": 1766,
    "missi": 1767,
    "##issin": 1768,
    "##ssing": 1769,
    "##nitu": 1770,
    "nea": 1771,
    "##dj": 1772,
    "##ju": 1773,
    "##dca": 1774,
    "rai": 1775,
    "appoin": 1776,
    "##pointm": 1777,
    "##ointme": 1778,
    "##intmen": 1779,
    "##ntment": 1780,
    "mess": 1781,
    "##essa": 1782,
    "##ssag": 1783,
    "##whe": 1784,
    "##here'": 1785,
    "##ere's": 1786,
    "sil": 1787,
    "##ais": 1788,
    "amplify": 1789,
    "##rc": 1790,
    "##nds": 1791,
    "tinn": 1792,
    "##tive": 1793,
    "possib": 1794,
    "##ossibl": 1795,
    "##ssible": 1796,
    "remem": 1797,
    "##ememb": 1798,
    "##membe": 1799,
    "##fic": 1800,
    "pod": 1801,
    "##odc": 1802,
    "have": 1803,
    "##sing": 1804,
    "##eo": 1805,
    "##inni": 1806,
    "##nnit": 1807,
    "##itus": 1808,
    "comi": 1809,
    "##omin": 1810,
    "##tiv": 1811,
    "custom": 1812,
    "##stomize": 1813,
    "da": 1814,
    "##otif": 1815,
    "##ros": 1816,
    "##ories": 1817,
    "toda": 1818,
    "##oday": 1819,
    "mor": 1820,
    "batter": 1821,
    "##mew": 1822,
    "sma": 1823,
    "##inn": 1824,
    "pres": 1825,
    "noti": 1826,
    "lap": 1827,
    "##pto": 1828,
    "hook": 1829,
    "transl": 1830,
    "##ransla": 1831,
    "##anslat": 1832,
    "louden": 1833,
    "##adi": 1834,
    "aro": 1835,
    "##ittle": 1836,
    "##arb": 1837,
    "mispla": 1838,
    "##isplac": 1839,
    "##splace": 1840,
    "##placed": 1841,
    "kn": 1842,
    "ipa": 1843,
    "##pad": 1844,
    "##dul": 1845,
    "##ule": 1846,
    "prescr": 1847,
    "##rescri": 1848,
    "##escrip": 1849,
    "##ific": 1850,
    "##fica": 1851,
    "##nni": 1852,
    "##n'": 1853,
    "##she": 1854,
    "##ls": 1855,
    "##rby": 1856,
    "##rtp": 1857,
    "##tph": 1858,
    "sch": 1859,
    "softer": 1860,
    "##ewh": 1861,
    "littl": 1862,
    "##ouder": 1863,
    "##oise": 1864,
    "##ecur": 1865,
    "##tifi": 1866,
    "sche": 1867,
    "cur": 1868,
    "##duc": 1869,
    "##aye": 1870,
    "##yer": 1871,
    "##ance": 1872,
    "loudn": 1873,
    "##oudne": 1874,
    "##udnes": 1875,
    "##dness": 1876,
    "evening": 1877,
    "##'t": 1878,
    "##oe": 1879,
    "clo": 1880,
    "pa": 1881,
    "rad": 1882,
    "recu": 1883,
    "##curr": 1884,
    "##urri": 1885,
    "##rrin": 1886,
    "##put": 1887,
    "##utu": 1888,
    "##lk": 1889,
    "##ub": 1890,
    "##embe": 1891,
    "battery": 1892,
    "afterno": 1893,
    "##fternoo": 1894,
    "##ternoon": 1895,
    "restaur": 1896,
    "##estaura": 1897,
    "##stauran": 1898,
    "##taurant": 1899,
    "##ir": 1900,
    "##rsona": 1901,
    "##sonal": 1902,
    "##ndo": 1903,
    "tab": 1904,
    "sof": 1905,
    "##oft": 1906,
    "##justm": 1907,
    "##ustme": 1908,
    "##stmen": 1909,
    "##los": 1910,
    "red": 1911,
    "act": 1912,
    "##res": 1913,
    "##lph": 1914,
    "han": 1915,
    "everyd": 1916,
    "##veryda": 1917,
    "##eryday": 1918,
    "dia": 1919,
    "si": 1920,
    "##mpu": 1921,
    "##tub": 1922,
    "##ube": 1923,
    "shu": 1924,
    "##hut": 1925,
    "understa": 1926,
    "##nderstan": 1927,
    "##derstand": 1928,
    "##ness": 1929,
    "##uce": 1930,
    "thrive": 1931,
    "pairing": 1932,
    "##uiete": 1933,
    "##ieter": 1934,
    "##llp": 1935,
    "unl": 1936,
    "##scr": 1937,
    "##cri": 1938,
    "##we": 1939,
    "##ori": 1940,
    "las": 1941,
    "##nli": 1942,
    "##ia": 1943,
    "ac": 1944,
    "##set": 1945,
    "##crip": 1946,
    "##ript": 1947,
    "##ustomi": 1948,
    "##stomiz": 1949,
    "##oon": 1950,
    "mas": 1951,
    "##tter": 1952,
    "mode": 1953,
    "pick": 1954,
    "##ustments": 1955,
    "##ily": 1956,
    "amplif": 1957,
    "##uc": 1958,
    "ug": 1959,
    "man": 1960,
    "##nu": 1961,
    "##ext": 1962,
    "##onal": 1963,
    "##an'": 1964,
    "add": 1965,
    "##orie": 1966,
    "##ap": 1967,
    "rout": 1968,
    "##oute": 1969,
    "##ipti": 1970,
    "water": 1971,
    "##egi": 1972,
    "mod": 1973,
    "##nit": 1974,
    "pre": 1975,
    "##smi": 1976,
    "##mplify": 1977,
    "##stan": 1978,
    "mask": 1979,
    "##ans": 1980,
    "##pe": 1981,
    "##ppoin": 1982,
    "##point": 1983,
    "calorie": 1984,
    "##rnin": 1985,
    "charge": 1986,
    "miss": 1987,
    "iph": 1988,
    "##dnes": 1989,
    "##tomize": 1990,
    "##ies": 1991,
    "##pti": 1992,
    "boost": 1993,
    "appoi": 1994,
    "##ointm": 1995,
    "##intme": 1996,
    "##ntmen": 1997,
    "week": 1998,
    "##umb": 1999,
    "##ga": 2000,
    "soften": 2001,
    "when": 2002,
    "afte": 2003,
    "possi": 2004,
    "##ossib": 2005,
    "##ssibl": 2006,
    "##sible": 2007,
    "##oin": 2008,
    "exp": 2009,
    "##gs": 2010,
    "ex": 2011,
    "##sa": 2012,
    "speech": 2013,
    "morn": 2014,
    "##orni": 2015,
    "pair": 2016,
    "##ism": 2017,
    "##mis": 2018,
    "##atter": 2019,
    "custo": 2020,
    "##ustom": 2021,
    "##dse": 2022,
    "##ois": 2023,
    "bit": 2024,
    "pers": 2025,
    "##erso": 2026,
    "##rson": 2027,
    "##tan": 2028,
    "num": 2029,
    "batte": 2030,
    "##ransl": 2031,
    "##ansla": 2032,
    "##nslat": 2033,
    "crank": 2034,
    "##ouden": 2035,
    "calories": 2036,
    "abou": 2037,
    "##bout": 2038,
    "##issi": 2039,
    "##ssin": 2040,
    "##ere'": 2041,
    "beg": 2042,
    "did": 2043,
    "dai": 2044,
    "##xpl": 2045,
    "mispl": 2046,
    "##ispla": 2047,
    "##splac": 2048,
    "##place": 2049,
    "##laced": 2050,
    "score": 2051,
    "presc": 2052,
    "##rescr": 2053,
    "##escri": 2054,
    "evenin": 2055,
    "##vening": 2056,
    "##re's": 2057,
    "##fi": 2058,
    "##nes": 2059,
    "##lai": 2060,
    "##do": 2061,
    "##pa": 2062,
    "##tte": 2063,
    "noi": 2064,
    "underst": 2065,
    "##ndersta": 2066,
    "##derstan": 2067,
    "##erstand": 2068,
    "##ofter": 2069,
    "reme": 2070,
    "##emem": 2071,
    "##memb": 2072,
    "##attery": 2073,
    "aftern": 2074,
    "##fterno": 2075,
    "##ternoo": 2076,
    "##ernoon": 2077,
    "restau": 2078,
    "##estaur": 2079,
    "##staura": 2080,
    "##tauran": 2081,
    "##aurant": 2082,
    "manage": 2083,
    "##rre": 2084,
    "##itu": 2085,
    "exercise": 2086,
    "##har": 2087,
    "##sag": 2088,
    "pairin": 2089,
    "##airing": 2090,
    "medicine": 2091,
    "##tus": 2092,
    "##eme": 2093,
    "bi": 2094,
    "##ittl": 2095,
    "##ttle": 2096,
    "##stments": 2097,
    "##sin": 2098,
    "##tom": 2099,
    "boo": 2100,
    "transcri": 2101,
    "##ersonali": 2102,
    "##rsonaliz": 2103,
    "wonderin": 2104,
    "##ondering": 2105,
    "kil": 2106,
    "##veryd": 2107,
    "##eryda": 2108,
    "##ryday": 2109,
    "thing": 2110,
    "litt": 2111,
    "##uder": 2112,
    "thriv": 2113,
    "##hrive": 2114,
    "hav": 2115,
    "mes": 2116,
    "##ssa": 2117,
    "##eter": 2118,
    "##oudn": 2119,
    "##udne": 2120,
    "##sonalize": 2121,
    "tin": 2122,
    "hour": 2123,
    "##oti": 2124,
    "charg": 2125,
    "##harge": 2126,
    "##stomi": 2127,
    "##tomiz": 2128,
    "##lace": 2129,
    "##sona": 2130,
    "##tif": 2131,
    "##ustm": 2132,
    "##stme": 2133,
    "##ize": 2134,
    "##oint": 2135,
    "##ifi": 2136,
    "##esc": 2137,
    "##of": 2138,
    "tod": 2139,
    "##oda": 2140,
    "##ove": 2141,
    "voice": 2142,
    "hoo": 2143,
    "ampli": 2144,
    "##mplif": 2145,
    "lost": 2146,
    "calori": 2147,
    "##alorie": 2148,
    "repeat": 2149,
    "##tm": 2150,
    "##cur": 2151,
    "##iete": 2152,
    "before": 2153,
    "alert": 2154,
    "##plify": 2155,
    "##anc": 2156,
    "##rri": 2157,
    "##ecu": 2158,
    "##alories": 2159,
    "##oice": 2160,
    "##ranslate": 2161,
    "use": 2162,
    "per": 2163,
    "ag": 2164,
    "##emb": 2165,
    "cancel": 2166,
    "##omize": 2167,
    "too": 2168,
    "##dit": 2169,
    "exercis": 2170,
    "##often": 2171,
    "are": 2172,
    "outdoors": 2173,
    "##tand": 2174,
    "push": 2175,
    "speec": 2176,
    "##peech": 2177,
    "##hu": 2178,
    "##oost": 2179,
    "##ible": 2180,
    "wate": 2181,
    "##rge": 2182,
    "##xercise": 2183,
    "unders": 2184,
    "##nderst": 2185,
    "##dersta": 2186,
    "##erstan": 2187,
    "##rstand": 2188,
    "##ock": 2189,
    "delete": 2190,
    "medicin": 2191,
    "##edicine": 2192,
    "##ppoi": 2193,
    "##poin": 2194,
    "reschedu": 2195,
    "##eschedul": 2196,
    "##schedule": 2197,
    "##ode": 2198,
    "##nal": 2199,
    "##ipt": 2200,
    "knock": 2201,
    "sm": 2202,
    "##ip": 2203,
    "nu": 2204,
    "##dc": 2205,
    "boos": 2206,
    "appo": 2207,
    "##intm": 2208,
    "##ntme": 2209,
    "transcr": 2210,
    "##ranscri": 2211,
    "##rsonali": 2212,
    "##sonaliz": 2213,
    "wonderi": 2214,
    "##onderin": 2215,
    "##ndering": 2216,
    "eveni": 2217,
    "##venin": 2218,
    "##wh": 2219,
    "manag": 2220,
    "guide": 2221,
    "##rni": 2222,
    "##rip": 2223,
    "##pli": 2224,
    "##air": 2225,
    "automati": 2226,
    "##utomatic": 2227,
    "##au": 2228,
    "##ye": 2229,
    "##ze": 2230,
    "poss": 2231,
    "##ossi": 2232,
    "##ssib": 2233,
    "##sibl": 2234,
    "pic": 2235,
    "##tments": 2236,
    "friday": 2237,
    "access": 2238,
    "##ttery": 2239,
    "##ftern": 2240,
    "##terno": 2241,
    "##ernoo": 2242,
    "##rnoon": 2243,
    "resta": 2244,
    "##estau": 2245,
    "##staur": 2246,
    "##taura": 2247,
    "##auran": 2248,
    "##urant": 2249,
    "##anage": 2250,
    "##atte": 2251,
    "##rank": 2252,
    "cust": 2253,
    "##usto": 2254,
    "##stom": 2255,
    "##onalize": 2256,
    "next": 2257,
    "##noo": 2258,
    "##ify": 2259,
    "##are": 2260,
    "ti": 2261,
    "batt": 2262,
    "##rb": 2263,
    "spe": 2264,
    "##ona": 2265,
    "##rive": 2266,
    "update": 2267,
    "doctor": 2268,
    "##ansl": 2269,
    "##nsla": 2270,
    "##slat": 2271,
    "cran": 2272,
    "##uden": 2273,
    "changing": 2274,
    "pairi": 2275,
    "##airin": 2276,
    "##iring": 2277,
    "we": 2278,
    "##ted": 2279,
    "outdoor": 2280,
    "rou": 2281,
    "misp": 2282,
    "##ispl": 2283,
    "##spla": 2284,
    "##plac": 2285,
    "##aced": 2286,
    "bump": 2287,
    "scor": 2288,
    "##core": 2289,
    "##resc": 2290,
    "##escr": 2291,
    "##cor": 2292,
    "##by": 2293,
    "##e's": 2294,
    "resume": 2295,
    "##tp": 2296,
    "thin": 2297,
    "assistan": 2298,
    "accessor": 2299,
    "##dne": 2300,
    "##ex": 2301,
    "disable": 2302,
    "bu": 2303,
    "wee": 2304,
    "##eek": 2305,
    "##so": 2306,
    "##son": 2307,
    "##orn": 2308,
    "##nl": 2309,
    "aft": 2310,
    "ton": 2311,
    "##tle": 2312,
    "pai": 2313,
    "##harg": 2314,
    "pi": 2315,
    "##ranscrib": 2316,
    "##anslate": 2317,
    "##itt": 2318,
    "##pu": 2319,
    "remove": 2320,
    "ease": 2321,
    "##rso": 2322,
    "##int": 2323,
    "##ppo": 2324,
    "##lories": 2325,
    "abo": 2326,
    "##bou": 2327,
    "pe": 2328,
    "##ther": 2329,
    "##re'": 2330,
    "##eryd": 2331,
    "##ryda": 2332,
    "##yday": 2333,
    "##utdoors": 2334,
    "##anscribe": 2335,
    "thri": 2336,
    "##hriv": 2337,
    "duplicat": 2338,
    "##uplicate": 2339,
    "noon": 2340,
    "calor": 2341,
    "##alori": 2342,
    "##lorie": 2343,
    "##thing": 2344,
    "repea": 2345,
    "##epeat": 2346,
    "##ace": 2347,
    "wat": 2348,
    "##arge": 2349,
    "##ging": 2350,
    "drop": 2351,
    "##dd": 2352,
    "exerci": 2353,
    "##xercis": 2354,
    "##eri": 2355,
    "##ond": 2356,
    "##ttl": 2357,
    "enable": 2358,
    "##ank": 2359,
    "##mem": 2360,
    "wonder": 2361,
    "ren": 2362,
    "befor": 2363,
    "##efore": 2364,
    "resched": 2365,
    "##eschedu": 2366,
    "##schedul": 2367,
    "us": 2368,
    "char": 2369,
    "even": 2370,
    "##ranslati": 2371,
    "##ften": 2372,
    "##ssistant": 2373,
    "##tomi": 2374,
    "##omiz": 2375,
    "##ci": 2376,
    "##xt": 2377,
    "cance": 2378,
    "##ancel": 2379,
    "heart": 2380,
    "##ercise": 2381,
    "voic": 2382,
    "ampl": 2383,
    "##mpli": 2384,
    "##plif": 2385,
    "medici": 2386,
    "##edicin": 2387,
    "##dicine": 2388,
    "automat": 2389,
    "##utomati": 2390,
    "##tomatic": 2391,
    "weekend": 2392,
    "o'clock": 2393,
    "##lat": 2394,
    "hours": 2395,
    "auditori": 2396,
    "##uditoriu": 2397,
    "##ditorium": 2398,
    "three": 2399,
    "differen": 2400,
    "dr": 2401,
    "##eg": 2402,
    "##ood": 2403,
    "transc": 2404,
    "##ranscr": 2405,
    "##anscri": 2406,
    "##stm": 2407,
    "##sonali": 2408,
    "##onaliz": 2409,
    "##onderi": 2410,
    "##nderin": 2411,
    "##dering": 2412,
    "goal": 2413,
    "aler": 2414,
    "##lert": 2415,
    "##sm": 2416,
    "##ib": 2417,
    "##lify": 2418,
    "los": 2419,
    "##lac": 2420,
    "under": 2421,
    "##derst": 2422,
    "##ersta": 2423,
    "##rstan": 2424,
    "##stand": 2425,
    "lit": 2426,
    "##nging": 2427,
    "changin": 2428,
    "##hanging": 2429,
    "delet": 2430,
    "##elete": 2431,
    "drink": 2432,
    "now": 2433,
    "reco": 2434,
    "spee": 2435,
    "programs": 2436,
    "##udn": 2437,
    "##mize": 2438,
    "##nalize": 2439,
    "grocer": 2440,
    "##po": 2441,
    "tone": 2442,
    "assista": 2443,
    "##ssistan": 2444,
    "accesso": 2445,
    "##ccessor": 2446,
    "##cu": 2447,
    "outdoo": 2448,
    "##utdoor": 2449,
    "fri": 2450,
    "monday": 2451,
    "##xp": 2452,
    "rename": 2453,
    "##ments": 2454,
    "frida": 2455,
    "##riday": 2456,
    "acces": 2457,
    "##ccess": 2458,
    "blood": 2459,
    "##peec": 2460,
    "##eech": 2461,
    "##uran": 2462,
    "question": 2463,
    "mana": 2464,
    "pressure": 2465,
    "##ced": 2466,
    "##ame": 2467,
    "##ree": 2468,
    "##ts": 2469,
    "theater": 2470,
    "##anscrib": 2471,
    "##ov": 2472,
    "##tern": 2473,
    "updat": 2474,
    "##pdate": 2475,
    "docto": 2476,
    "##octor": 2477,
    "don't": 2478,
    "knoc": 2479,
    "##nock": 2480,
    "disabl": 2481,
    "##isable": 2482,
    "guid": 2483,
    "##ush": 2484,
    "##veni": 2485,
    "##rant": 2486,
    "##anag": 2487,
    "##uide": 2488,
    "##ering": 2489,
    "resum": 2490,
    "##esume": 2491,
    "##oic": 2492,
    "##ors": 2493,
    "##nscribe": 2494,
    "##nslate": 2495,
    "##rst": 2496,
    "duplica": 2497,
    "##uplicat": 2498,
    "##plicate": 2499,
    "##tery": 2500,
    "##erno": 2501,
    "##rnoo": 2502,
    "##noon": 2503,
    "##esta": 2504,
    "##stau": 2505,
    "##taur": 2506,
    "##aura": 2507,
    "##nage": 2508,
    "##urs": 2509,
    "##for": 2510,
    "##oos": 2511,
    "max": 2512,
    "##iz": 2513,
    "clean": 2514,
    "##ster": 2515,
    "office": 2516,
    "##tdoors": 2517,
    "##anslatio": 2518,
    "##nslation": 2519,
    "##den": 2520,
    "##airi": 2521,
    "##irin": 2522,
    "snooze": 2523,
    "##anslati": 2524,
    "##sistant": 2525,
    "pus": 2526,
    "##nable": 2527,
    "##ibl": 2528,
    "remov": 2529,
    "##emove": 2530,
    "sp": 2531,
    "##anging": 2532,
    "##poi": 2533,
    "resche": 2534,
    "##esched": 2535,
    "##schedu": 2536,
    "##lori": 2537,
    "auditor": 2538,
    "##uditori": 2539,
    "##ditoriu": 2540,
    "##itorium": 2541,
    "worship": 2542,
    "differe": 2543,
    "##ifferen": 2544,
    "##ifferent": 2545,
    "recovery": 2546,
    "lunch": 2547,
    "##isp": 2548,
    "##riv": 2549,
    "cra": 2550,
    "##ntm": 2551,
    "##tl": 2552,
    "##ert": 2553,
    "text": 2554,
    "automa": 2555,
    "##utomat": 2556,
    "##tomati": 2557,
    "##omatic": 2558,
    "##on't": 2559,
    "##ump": 2560,
    "sco": 2561,
    "weeken": 2562,
    "##eekend": 2563,
    "pos": 2564,
    "##sib": 2565,
    "o'cloc": 2566,
    "##'clock": 2567,
    "exerc": 2568,
    "##xerci": 2569,
    "##ercis": 2570,
    "enabl": 2571,
    "wonde": 2572,
    "##onder": 2573,
    "##alize": 2574,
    "##att": 2575,
    "recover": 2576,
    "##rograms": 2577,
    "cus": 2578,
    "nex": 2579,
    "##rg": 2580,
    "##mati": 2581,
    "##thin": 2582,
    "##rcise": 2583,
    "bat": 2584,
    "school": 2585,
    "##nsl": 2586,
    "##sla": 2587,
    "assist": 2588,
    "changi": 2589,
    "##hangin": 2590,
    "##edici": 2591,
    "##dicin": 2592,
    "##icine": 2593,
    "calo": 2594,
    "##alor": 2595,
    "repe": 2596,
    "##epea": 2597,
    "##peat": 2598,
    "##eart": 2599,
    "acce": 2600,
    "##spl": 2601,
    "##nts": 2602,
    "bum": 2603,
    "##ali": 2604,
    "##iew": 2605,
    "running": 2606,
    "someone": 2607,
    "questio": 2608,
    "##uestion": 2609,
    "intelli": 2610,
    "pressur": 2611,
    "##ressure": 2612,
    "##ransc": 2613,
    "##anscr": 2614,
    "##nscri": 2615,
    "##onali": 2616,
    "##naliz": 2617,
    "##nderi": 2618,
    "##derin": 2619,
    "more": 2620,
    "##ours": 2621,
    "new": 2622,
    "##ine": 2623,
    "##ssista": 2624,
    "##sistan": 2625,
    "##ccesso": 2626,
    "##cessor": 2627,
    "##hri": 2628,
    "befo": 2629,
    "##efor": 2630,
    "##fore": 2631,
    "##arg": 2632,
    "ale": 2633,
    "int": 2634,
    "##istan": 2635,
    "##ngin": 2636,
    "canc": 2637,
    "##ncel": 2638,
    "groce": 2639,
    "##rocer": 2640,
    "##the": 2641,
    "theate": 2642,
    "##heater": 2643,
    "two": 2644,
    "##nscrib": 2645,
    "##dn": 2646,
    "eas": 2647,
    "##istant": 2648,
    "forget": 2649,
    "four": 2650,
    "thre": 2651,
    "##hree": 2652,
    "##ven": 2653,
    "outdo": 2654,
    "##utdoo": 2655,
    "##tdoor": 2656,
    "##tions": 2657,
    "dro": 2658,
    "##sable": 2659,
    "monda": 2660,
    "##onday": 2661,
    "renam": 2662,
    "##ename": 2663,
    "tonight": 2664,
    "##ryd": 2665,
    "##yda": 2666,
    "master": 2667,
    "##scribe": 2668,
    "##nslatio": 2669,
    "##slation": 2670,
    "unde": 2671,
    "##erst": 2672,
    "##rsta": 2673,
    "##nday": 2674,
    "##cess": 2675,
    "dele": 2676,
    "##elet": 2677,
    "view": 2678,
    "duplic": 2679,
    "##uplica": 2680,
    "##plicat": 2681,
    "##licate": 2682,
    "noo": 2683,
    "drin": 2684,
    "##rink": 2685,
    "disab": 2686,
    "##isabl": 2687,
    "later": 2688,
    "##ler": 2689,
    "##ech": 2690,
    "##ura": 2691,
    "##nslati": 2692,
    "##miz": 2693,
    "##iri": 2694,
    "##tanding": 2695,
    "##fferent": 2696,
    "##slate": 2697,
    "##ecovery": 2698,
    "##e'": 2699,
    "##ctor": 2700,
    "##late": 2701,
    "##ents": 2702,
    "frid": 2703,
    "##rida": 2704,
    "##iday": 2705,
    "##cces": 2706,
    "bloo": 2707,
    "##lood": 2708,
    "rea": 2709,
    "voi": 2710,
    "amp": 2711,
    "##lif": 2712,
    "##fy": 2713,
    "su": 2714,
    "##alking": 2715,
    "offic": 2716,
    "##ffice": 2717,
    "##pee": 2718,
    "audito": 2719,
    "##uditor": 2720,
    "##ditori": 2721,
    "##itoriu": 2722,
    "##torium": 2723,
    "worshi": 2724,
    "##orship": 2725,
    "##doors": 2726,
    "differ": 2727,
    "##iffere": 2728,
    "##fferen": 2729,
    "upda": 2730,
    "##pdat": 2731,
    "##date": 2732,
    "doct": 2733,
    "##octo": 2734,
    "don'": 2735,
    "snooz": 2736,
    "##nooze": 2737,
    "goa": 2738,
    "##oal": 2739,
    "##upl": 2740,
    "it's": 2741,
    "##erin": 2742,
    "##lean": 2743,
    "rate": 2744,
    "resu": 2745,
    "##esum": 2746,
    "##sume": 2747,
    "##matic": 2748,
    "##angin": 2749,
    "resch": 2750,
    "##esche": 2751,
    "##sched": 2752,
    "##eco": 2753,
    "af": 2754,
    "recove": 2755,
    "##ecover": 2756,
    "##ograms": 2757,
    "##up": 2758,
    "##ek": 2759,
    "##rain": 2760,
    "daughter": 2761,
    "feed": 2762,
    "memories": 2763,
    "audiolog": 2764,
    "##udiologi": 2765,
    "##diologis": 2766,
    "##iologist": 2767,
    "##uid": 2768,
    "am": 2769,
    "autom": 2770,
    "##utoma": 2771,
    "##tomat": 2772,
    "##omati": 2773,
    "##feren": 2774,
    "##stant": 2775,
    "##essor": 2776,
    "weeke": 2777,
    "##eeken": 2778,
    "##ekend": 2779,
    "o'clo": 2780,
    "##'cloc": 2781,
    "##clock": 2782,
    "fa": 2783,
    "##ding": 2784,
    "ab": 2785,
    "runnin": 2786,
    "##unning": 2787,
    "##eec": 2788,
    "##su": 2789,
    "someon": 2790,
    "##omeone": 2791,
    "friend": 2792,
    "##nabl": 2793,
    "inte": 2794,
    "questi": 2795,
    "##uestio": 2796,
    "##estion": 2797,
    "##ana": 2798,
    "dinner": 2799,
    "##emov": 2800,
    "##move": 2801,
    "intell": 2802,
    "##ntelli": 2803,
    "edit": 2804,
    "pressu": 2805,
    "##ressur": 2806,
    "##essure": 2807,
    "train": 2808,
    "##ern": 2809,
    "##cover": 2810,
    "schoo": 2811,
    "##chool": 2812,
    "##noc": 2813,
    "assis": 2814,
    "##ssist": 2815,
    "##hangi": 2816,
    "gui": 2817,
    "pause": 2818,
    "many": 2819,
    "##erci": 2820,
    "speciali": 2821,
    "##pecialis": 2822,
    "##ecialist": 2823,
    "##aliz": 2824,
    "lunc": 2825,
    "##unch": 2826,
    "meditate": 2827,
    "##pea": 2828,
    "fee": 2829,
    "##lation": 2830,
    "##ean": 2831,
    "##nag": 2832,
    "masker": 2833,
    "couple": 2834,
    "exer": 2835,
    "##xerc": 2836,
    "##rcis": 2837,
    "enab": 2838,
    "##sista": 2839,
    "wond": 2840,
    "##onde": 2841,
    "##cesso": 2842,
    "##lize": 2843,
    "##rno": 2844,
    "##tau": 2845,
    "##aur": 2846,
    "##lor": 2847,
    "aerobics": 2848,
    "##erc": 2849,
    "##cise": 2850,
    "mon": 2851,
    "tonigh": 2852,
    "##onight": 2853,
    "tex": 2854,
    "del": 2855,
    "##slatio": 2856,
    "fall": 2857,
    "modify": 2858,
    "##dici": 2859,
    "##icin": 2860,
    "##cine": 2861,
    "##aster": 2862,
    "theat": 2863,
    "##heate": 2864,
    "##eater": 2865,
    "##scrib": 2866,
    "forge": 2867,
    "##orget": 2868,
    "##icate": 2869,
    "##ax": 2870,
    "##nte": 2871,
    "much": 2872,
    "##sp": 2873,
    "##ansc": 2874,
    "##nscr": 2875,
    "##roce": 2876,
    "##nali": 2877,
    "##deri": 2878,
    "aerobic": 2879,
    "##ny": 2880,
    "##tandin": 2881,
    "##anding": 2882,
    "##ything": 2883,
    "people": 2884,
    "was": 2885,
    "maste": 2886,
    "crowd": 2887,
    "##ffere": 2888,
    "##ferent": 2889,
    "dri": 2890,
    "##on'": 2891,
    "##cribe": 2892,
    "special": 2893,
    "acc": 2894,
    "##covery": 2895,
    "dupli": 2896,
    "##uplic": 2897,
    "##plica": 2898,
    "##licat": 2899,
    "activity": 2900,
    "##ista": 2901,
    "##door": 2902,
    "somethin": 2903,
    "##omething": 2904,
    "language": 2905,
    "groc": 2906,
    "##ocer": 2907,
    "##ont": 2908,
    "rep": 2909,
    "fou": 2910,
    "##nda": 2911,
    "##slati": 2912,
    "break": 2913,
    "day": 2914,
    "will": 2915,
    "##mat": 2916,
    "##thi": 2917,
    "cont": 2918,
    "outd": 2919,
    "##utdo": 2920,
    "##tdoo": 2921,
    "##ions": 2922,
    "##epe": 2923,
    "disa": 2924,
    "##sabl": 2925,
    "##ues": 2926,
    "mond": 2927,
    "##onda": 2928,
    "rena": 2929,
    "##enam": 2930,
    "##name": 2931,
    "##ills": 2932,
    "daughte": 2933,
    "##aughter": 2934,
    "memorie": 2935,
    "##emories": 2936,
    "audiolo": 2937,
    "##udiolog": 2938,
    "##diologi": 2939,
    "##iologis": 2940,
    "##ologist": 2941,
    "##alo": 2942,
    "##een": 2943,
    "won": 2944,
    "##cce": 2945,
    "##nding": 2946,
    "##alkin": 2947,
    "##lking": 2948,
    "##eries": 2949,
    "##ffic": 2950,
    "audit": 2951,
    "##udito": 2952,
    "##ditor": 2953,
    "##itori": 2954,
    "##toriu": 2955,
    "##orium": 2956,
    "worsh": 2957,
    "##orshi": 2958,
    "##rship": 2959,
    "diffe": 2960,
    "##iffer": 2961,
    "##isab": 2962,
    "shopping": 2963,
    "doctor's": 2964,
    "##fo": 2965,
    "bef": 2966,
    "##efo": 2967,
    "##toma": 2968,
    "##atic": 2969,
    "##peciali": 2970,
    "##ecialis": 2971,
    "##cialist": 2972,
    "grocery": 2973,
    "meditat": 2974,
    "##editate": 2975,
    "recov": 2976,
    "##ecove": 2977,
    "gym": 2978,
    "##rsh": 2979,
    "##grams": 2980,
    "##ngi": 2981,
    "##cel": 2982,
    "##loo": 2983,
    "##tivity": 2984,
    "run": 2985,
    "##over": 2986,
    "offi": 2987,
    "##fice": 2988,
    "auto": 2989,
    "##hre": 2990,
    "##oors": 2991,
    "##fere": 2992,
    "conversa": 2993,
    "##onversat": 2994,
    "##nversati": 2995,
    "##versatio": 2996,
    "##ersation": 2997,
    "##hare": 2998,
    "##ause": 2999
  }
}