{
  "mode": "subword",
  "vocab": {
    "[PAD]": 0,
    "[UNK]": 1,
    "'": 2,
    "##'": 3,
    "0": 4,
    "##0": 5,
    "1": 6,
    "##1": 7,
    "2": 8,
    "##2": 9,
    "3": 10,
    "##3": 11,
    "4": 12,
    "##4": 13,
    "5": 14,
    "##5": 15,
    "6": 16,
    "##6": 17,
    "7": 18,
    "##7": 19,
    "8": 20,
    "##8": 21,
    "9": 22,
    "##9": 23,
    "a": 24,
    "##a": 25,
    "b": 26,
    "##b": 27,
    "c": 28,
    "##c": 29,
    "d": 30,
    "##d": 31,
    "e": 32,
    "##e": 33,
    "f": 34,
    "##f": 35,
    "g": 36,
    "##g": 37,
    "h": 38,
    "##h": 39,
    "i": 40,
    "##i": 41,
    "j": 42,
    "##j": 43,
    "k": 44,
    "##k": 45,
    "l": 46,
    "##l": 47,
    "m": 48,
    "##m": 49,
    "n": 50,
    "##n": 51,
    "o": 52,
    "##o": 53,
    "p": 54,
    "##p": 55,
    "q": 56,
    "##q": 57,
    "r": 58,
    "##r": 59,
    "s": 60,
    "##s": 61,
    "t": 62,
    "##t": 63,
    "u": 64,
    "##u": 65,
    "v": 66,
    "##v": 67,
    "w": 68,
    "##w": 69,
    "x": 70,
    "##x": 71,
    "y": 72,
    "##y": 73,
    "z": 74,
    "##z": 75,
    "hearing": 76,
    "##in": 77,
    "##earing": 78,
    "hearin": 79,
    "##ing": 80,
    "reminder": 81,
    "##ou": 82,
    "the": 83,
    "##ea": 84,
    "##aring": 85,
    "##earin": 86,
    "heari": 87,
    "reminde": 88,
    "##eminder": 89,
    "my": 90,
    "remind": 91,
    "please": 92,
    "##ring": 93,
    "you": 94,
    "##he": 95,
    "hear": 96,
    "##eminde": 97,
    "##minder": 98,
    "th": 99,
    "##arin": 100,
    "##eari": 101,
    "aid": 102,
    "##ng": 103,
    "remin": 104,
    "##emind": 105,
    "##lease": 106,
    "pleas": 107,
    "to": 108,
    "##ar": 109,
    "##ear": 110,
    "##nd": 111,
    "##minde": 112,
    "##inder": 113,
    "##rin": 114,
    "##ease": 115,
    "he": 116,
    "hea": 117,
    "##mind": 118,
    "remi": 119,
    "##emin": 120,
    "##leas": 121,
    "plea": 122,
    "##ari": 123,
    "##id": 124,
    "yo": 125,
    "##min": 126,
    "##ind": 127,
    "##nder": 128,
    "##er": 129,
    "volume": 130,
    "##inde": 131,
    "ai": 132,
    "##an": 133,
    "rem": 134,
    "##ase": 135,
    "aids": 136,
    "##eas": 137,
    "##le": 138,
    "##ri": 139,
    "##lea": 140,
    "can": 141,
    "##emi": 142,
    "##ould": 143,
    "ple": 144,
    "volum": 145,
    "##olume": 146,
    "##der": 147,
    "re": 148,
    "##se": 149,
    "##as": 150,
    "##nde": 151,
    "##on": 152,
    "##em": 153,
    "##mi": 154,
    "ca": 155,
    "##ids": 156,
    "volu": 157,
    "##olum": 158,
    "##lume": 159,
    "turn": 160,
    "##te": 161,
    "##re": 162,
    "on": 163,
    "stream": 164,
    "##hone": 165,
    "##oul": 166,
    "##uld": 167,
    "##ro": 168,
    "pl": 169,
    "##de": 170,
    "sound": 171,
    "device": 172,
    "could": 173,
    "##ne": 174,
    "##one": 175,
    "##ow": 176,
    "##ic": 177,
    "strea": 178,
    "##tream": 179,
    "right": 180,
    "##ound": 181,
    "##ume": 182,
    "##et": 183,
    "##urn": 184,
    "##olu": 185,
    "vol": 186,
    "##lum": 187,
    "tur": 188,
    "##om": 189,
    "##ds": 190,
    "devic": 191,
    "##evice": 192,
    "me": 193,
    "##me": 194,
    "##hon": 195,
    "##rea": 196,
    "soun": 197,
    "##or": 198,
    "coul": 199,
    "##ur": 200,
    "streamin": 201,
    "##treaming": 202,
    "would": 203,
    "##ul": 204,
    "##ight": 205,
    "phone": 206,
    "from": 207,
    "co": 208,
    "##is": 209,
    "stre": 210,
    "do": 211,
    "##ream": 212,
    "##trea": 213,
    "##ld": 214,
    "righ": 215,
    "st": 216,
    "left": 217,
    "##ut": 218,
    "##reaming": 219,
    "streami": 220,
    "##treamin": 221,
    "##at": 222,
    "##und": 223,
    "how": 224,
    "##oun": 225,
    "devi": 226,
    "##evic": 227,
    "##vice": 228,
    "##um": 229,
    "##ho": 230,
    "##st": 231,
    "##el": 232,
    "##onnect": 233,
    "off": 234,
    "help": 235,
    "like": 236,
    "program": 237,
    "woul": 238,
    "##rn": 239,
    "cou": 240,
    "audio": 241,
    "phon": 242,
    "hey": 243,
    "##ol": 244,
    "ho": 245,
    "##ck": 246,
    "sou": 247,
    "vo": 248,
    "##reamin": 249,
    "##eaming": 250,
    "##treami": 251,
    "##es": 252,
    "##ght": 253,
    "##am": 254,
    "##lu": 255,
    "##phone": 256,
    "devices": 257,
    "##igh": 258,
    "##ed": 259,
    "##io": 260,
    "tu": 261,
    "##evi": 262,
    "##rom": 263,
    "fro": 264,
    "##gh": 265,
    "str": 266,
    "need": 267,
    "##tre": 268,
    "##ice": 269,
    "##eam": 270,
    "progra": 271,
    "##rogram": 272,
    "rig": 273,
    "##ke": 274,
    "##ce": 275,
    "down": 276,
    "##onnec": 277,
    "##nnect": 278,
    "so": 279,
    "lef": 280,
    "##eft": 281,
    "le": 282,
    "li": 283,
    "##ute": 284,
    "switch": 285,
    "want": 286,
    "audi": 287,
    "##en": 288,
    "dev": 289,
    "##vic": 290,
    "##evices": 291,
    "connect": 292,
    "##aming": 293,
    "##reami": 294,
    "##eamin": 295,
    "##udio": 296,
    "##un": 297,
    "##ti": 298,
    "of": 299,
    "hel": 300,
    "##ike": 301,
    "##eminders": 302,
    "##elp": 303,
    "lik": 304,
    "set": 305,
    "##nt": 306,
    "wou": 307,
    "##it": 308,
    "##phon": 309,
    "pho": 310,
    "##ming": 311,
    "##ee": 312,
    "##ec": 313,
    "##tion": 314,
    "progr": 315,
    "##rogra": 316,
    "##ogram": 317,
    "change": 318,
    "complete": 319,
    "##itch": 320,
    "##vi": 321,
    "wa": 322,
    "switc": 323,
    "##witch": 324,
    "##eed": 325,
    "for": 326,
    "##ant": 327,
    "##ff": 328,
    "se": 329,
    "in": 330,
    "##ion": 331,
    "memory": 332,
    "##onne": 333,
    "##nnec": 334,
    "##nect": 335,
    "##dio": 336,
    "connec": 337,
    "wo": 338,
    "##ft": 339,
    "##ey": 340,
    "##minders": 341,
    "nee": 342,
    "##vices": 343,
    "##us": 344,
    "##ack": 345,
    "ri": 346,
    "de": 347,
    "fr": 348,
    "##di": 349,
    "quick": 350,
    "##amin": 351,
    "##own": 352,
    "dow": 353,
    "through": 354,
    "chang": 355,
    "##ig": 356,
    "back": 357,
    "##ate": 358,
    "##ev": 359,
    "##eami": 360,
    "##ll": 361,
    "complet": 362,
    "##omplete": 363,
    "##ht": 364,
    "##emo": 365,
    "wan": 366,
    "aud": 367,
    "##udi": 368,
    "##tr": 369,
    "##ch": 370,
    "##here": 371,
    "##ef": 372,
    "##hange": 373,
    "##ere": 374,
    "memor": 375,
    "an": 376,
    "##ha": 377,
    "prog": 378,
    "##rogr": 379,
    "##ogra": 380,
    "##gram": 381,
    "##ra": 382,
    "mute": 383,
    "##inders": 384,
    "ne": 385,
    "##ry": 386,
    "##emory": 387,
    "conne": 388,
    "##lp": 389,
    "ma": 390,
    "##pho": 391,
    "quickly": 392,
    "swit": 393,
    "##witc": 394,
    "##tch": 395,
    "and": 396,
    "i'": 397,
    "throug": 398,
    "##hrough": 399,
    "##ud": 400,
    "##tio": 401,
    "start": 402,
    "##ot": 403,
    "comple": 404,
    "##omplet": 405,
    "##mplete": 406,
    "##ices": 407,
    "##nders": 408,
    "##itc": 409,
    "##nne": 410,
    "this": 411,
    "stop": 412,
    "qui": 413,
    "##ect": 414,
    "both": 415,
    "up": 416,
    "quic": 417,
    "##uick": 418,
    "##ik": 419,
    "##to": 420,
    "micropho": 421,
    "##icrophon": 422,
    "##crophone": 423,
    "##op": 424,
    "chan": 425,
    "##onn": 426,
    "##nec": 427,
    "##ac": 428,
    "##hang": 429,
    "i'd": 430,
    "##al": 431,
    "##oo": 432,
    "##her": 433,
    "##ting": 434,
    "##mo": 435,
    "##ication": 436,
    "##top": 437,
    "##ami": 438,
    "ph": 439,
    "fo": 440,
    "listen": 441,
    "trying": 442,
    "##ust": 443,
    "quickl": 444,
    "##uickly": 445,
    "kindly": 446,
    "##ly": 447,
    "comp": 448,
    "##ange": 449,
    "##th": 450,
    "##ter": 451,
    "ch": 452,
    "memo": 453,
    "##emor": 454,
    "##mor": 455,
    "bac": 456,
    "##ay": 457,
    "pro": 458,
    "##ake": 459,
    "where": 460,
    "check": 461,
    "throu": 462,
    "##hroug": 463,
    "##rough": 464,
    "##art": 465,
    "##ation": 466,
    "##crease": 467,
    "android": 468,
    "##mory": 469,
    "##ick": 470,
    "fin": 471,
    "conn": 472,
    "##ve": 473,
    "mu": 474,
    "##ct": 475,
    "microph": 476,
    "##icropho": 477,
    "##crophon": 478,
    "##rophone": 479,
    "remote": 480,
    "##plete": 481,
    "thi": 482,
    "compl": 483,
    "##omple": 484,
    "##mplet": 485,
    "##cation": 486,
    "##la": 487,
    "disconne": 488,
    "##isconnec": 489,
    "##sconnect": 490,
    "mark": 491,
    "##ces": 492,
    "com": 493,
    "connecti": 494,
    "##rog": 495,
    "##ogr": 496,
    "##wn": 497,
    "setting": 498,
    "star": 499,
    "list": 500,
    "##ram": 501,
    "##gra": 502,
    "ear": 503,
    "mut": 504,
    "let's": 505,
    "##nn": 506,
    "##onnectio": 507,
    "##nnection": 508,
    "##tart": 509,
    "au": 510,
    "##ders": 511,
    "cha": 512,
    "wh": 513,
    "##icatio": 514,
    "swi": 515,
    "listenin": 516,
    "##istening": 517,
    "##oth": 518,
    "##wit": 519,
    "alarm": 520,
    "ahead": 521,
    "sto": 522,
    "##ge": 523,
    "##ist": 524,
    "##ers": 525,
    "liste": 526,
    "##isten": 527,
    "##rying": 528,
    "##han": 529,
    "tryin": 530,
    "##lete": 531,
    "##his": 532,
    "##uickl": 533,
    "##ickly": 534,
    "kindl": 535,
    "##indly": 536,
    "bot": 537,
    "##connect": 538,
    "##ang": 539,
    "ta": 540,
    "##hat": 541,
    "##etting": 542,
    "##t's": 543,
    "##ning": 544,
    "androi": 545,
    "##ndroid": 546,
    "##cat": 547,
    "find": 548,
    "disconn": 549,
    "##isconne": 550,
    "##sconnec": 551,
    "##uic": 552,
    "##let": 553,
    "##ui": 554,
    "con": 555,
    "microp": 556,
    "##icroph": 557,
    "##cropho": 558,
    "##rophon": 559,
    "##ophone": 560,
    "medicati": 561,
    "##edicatio": 562,
    "##dication": 563,
    "##onnecti": 564,
    "##creas": 565,
    "##rease": 566,
    "##ni": 567,
    "##tin": 568,
    "##nnectio": 569,
    "##nection": 570,
    "lo": 571,
    "just": 572,
    "##ough": 573,
    "##ph": 574,
    "##tc": 575,
    "remot": 576,
    "##emote": 577,
    "##rs": 578,
    "##rou": 579,
    "settin": 580,
    "##catio": 581,
    "ba": 582,
    "##il": 583,
    "wher": 584,
    "qu": 585,
    "listeni": 586,
    "##istenin": 587,
    "##stening": 588,
    "pr": 589,
    "chec": 590,
    "##heck": 591,
    "thro": 592,
    "##hrou": 593,
    "##roug": 594,
    "##atio": 595,
    "tr": 596,
    "##hi": 597,
    "##nge": 598,
    "##mple": 599,
    "##rk": 600,
    "##ete": 601,
    "sta": 602,
    "##rt": 603,
    "##ory": 604,
    "##omp": 605,
    "mem": 606,
    "##plet": 607,
    "##ompl": 608,
    "##icati": 609,
    "##ss": 610,
    "mi": 611,
    "thr": 612,
    "##ta": 613,
    "##cr": 614,
    "task": 615,
    "call": 616,
    "##eat": 617,
    "##si": 618,
    "let'": 619,
    "##et's": 620,
    "music": 621,
    "meeting": 622,
    "##ark": 623,
    "increase": 624,
    "what": 625,
    "mobile": 626,
    "ea": 627,
    "##connec": 628,
    "go": 629,
    "##'d": 630,
    "##ying": 631,
    "##iste": 632,
    "##pl": 633,
    "remo": 634,
    "whe": 635,
    "kind": 636,
    "medicat": 637,
    "##edicati": 638,
    "##dicatio": 639,
    "di": 640,
    "alar": 641,
    "##larm": 642,
    "##tting": 643,
    "##og": 644,
    "ahea": 645,
    "##head": 646,
    "mar": 647,
    "discon": 648,
    "##isconn": 649,
    "##sconne": 650,
    "fi": 651,
    "##ak": 652,
    "##ca": 653,
    "##ai": 654,
    "make": 655,
    "##ection": 656,
    "##ening": 657,
    "##ad": 658,
    "##nnecti": 659,
    "##ettin": 660,
    "al": 661,
    "bo": 662,
    "##tar": 663,
    "andro": 664,
    "##ndroi": 665,
    "##droid": 666,
    "tel": 667,
    "lis": 668,
    "##sten": 669,
    "##ask": 670,
    "##nectio": 671,
    "##ryin": 672,
    "##'s": 673,
    "tryi": 674,
    "micro": 675,
    "##icrop": 676,
    "##croph": 677,
    "##ropho": 678,
    "##ophon": 679,
    "create": 680,
    "##ckly": 681,
    "##ickl": 682,
    "##indl": 683,
    "##ndly": 684,
    "##ple": 685,
    "##isteni": 686,
    "##stenin": 687,
    "##tening": 688,
    "##icat": 689,
    "##mpl": 690,
    "bring": 691,
    "finish": 692,
    "##mp": 693,
    "setti": 694,
    "i'm": 695,
    "##ati": 696,
    "televisi": 697,
    "##elevisio": 698,
    "##levision": 699,
    "tomorrow": 700,
    "##crea": 701,
    "track": 702,
    "tele": 703,
    "##reas": 704,
    "##all": 705,
    "##ten": 706,
    "cal": 707,
    "increas": 708,
    "##ncrease": 709,
    "##ell": 710,
    "##emot": 711,
    "##mote": 712,
    "##ugh": 713,
    "##cati": 714,
    "##ste": 715,
    "mic": 716,
    "##eeting": 717,
    "meetin": 718,
    "unmute": 719,
    "##ome": 720,
    "tra": 721,
    "let": 722,
    "ki": 723,
    "##nin": 724,
    "##gr": 725,
    "adjust": 726,
    "telephon": 727,
    "##elephone": 728,
    "medica": 729,
    "##edicat": 730,
    "##dicati": 731,
    "locate": 732,
    "medic": 733,
    "##wi": 734,
    "sw": 735,
    "mobil": 736,
    "##obile": 737,
    "disco": 738,
    "feature": 739,
    "##ead": 740,
    "dis": 741,
    "##conne": 742,
    "##ent": 743,
    "##ile": 744,
    "##ction": 745,
    "jus": 746,
    "##oug": 747,
    "settings": 748,
    "is": 749,
    "che": 750,
    "take": 751,
    "##iscon": 752,
    "##sconn": 753,
    "mo": 754,
    "##hec": 755,
    "##eck": 756,
    "##hro": 757,
    "musi": 758,
    "##usic": 759,
    "##hea": 760,
    "##ectio": 761,
    "##necti": 762,
    "##oi": 763,
    "televis": 764,
    "##elevisi": 765,
    "##levisio": 766,
    "##evision": 767,
    "creat": 768,
    "##ttin": 769,
    "tomorro": 770,
    "##omorrow": 771,
    "##ele": 772,
    "##reate": 773,
    "audioboo": 774,
    "##udiobook": 775,
    "decrease": 776,
    "with": 777,
    "##steni": 778,
    "##tenin": 779,
    "##enin": 780,
    "tas": 781,
    "##etti": 782,
    "finis": 783,
    "##inish": 784,
    "##cti": 785,
    "##t'": 786,
    "loud": 787,
    "andr": 788,
    "##ndro": 789,
    "##droi": 790,
    "##roid": 791,
    "##icro": 792,
    "##et'": 793,
    "work": 794,
    "##est": 795,
    "out": 796,
    "increa": 797,
    "##ncreas": 798,
    "wha": 799,
    "kitchen": 800,
    "micr": 801,
    "##crop": 802,
    "##roph": 803,
    "##opho": 804,
    "locat": 805,
    "##yin": 806,
    "##lar": 807,
    "room": 808,
    "te": 809,
    "done": 810,
    "kin": 811,
    "telepho": 812,
    "##elephon": 813,
    "##lephone": 814,
    "medi": 815,
    "brin": 816,
    "ala": 817,
    "##arm": 818,
    "ahe": 819,
    "sett": 820,
    "mak": 821,
    "play": 822,
    "##eetin": 823,
    "##eting": 824,
    "##ettings": 825,
    "meeti": 826,
    "##eate": 827,
    "unmut": 828,
    "##nmute": 829,
    "##kly": 830,
    "##rack": 831,
    "##ndl": 832,
    "featur": 833,
    "##eature": 834,
    "trac": 835,
    "smartpho": 836,
    "##martphon": 837,
    "##artphone": 838,
    "try": 839,
    "un": 840,
    "every": 841,
    "##dicat": 842,
    "##dly": 843,
    "##cre": 844,
    "somewher": 845,
    "##omewhere": 846,
    "##ryi": 847,
    "adjus": 848,
    "##djust": 849,
    "##ica": 850,
    "minutes": 851,
    "##ckl": 852,
    "##edica": 853,
    "##ocate": 854,
    "##rop": 855,
    "quiet": 856,
    "show": 857,
    "##hr": 858,
    "##os": 859,
    "##nc": 860,
    "##tt": 861,
    "audiobo": 862,
    "##udioboo": 863,
    "##diobook": 864,
    "computer": 865,
    "decreas": 866,
    "##ecrease": 867,
    "restore": 868,
    "##ote": 869,
    "televi": 870,
    "##elevis": 871,
    "##levisi": 872,
    "##evisio": 873,
    "##vision": 874,
    "working": 875,
    "cellphon": 876,
    "##ellphone": 877,
    "##ompletel": 878,
    "##mpletely": 879,
    "##edic": 880,
    "tomorr": 881,
    "##omorro": 882,
    "##morrow": 883,
    "##ble": 884,
    "finished": 885,
    "mobi": 886,
    "##obil": 887,
    "##bile": 888,
    "at": 889,
    "##ore": 890,
    "disc": 891,
    "##isco": 892,
    "##ain": 893,
    "##conn": 894,
    "##ver": 895,
    "##ctio": 896,
    "##out": 897,
    "##mot": 898,
    "##ecti": 899,
    "wor": 900,
    "##ess": 901,
    "##scon": 902,
    "##sk": 903,
    "podcast": 904,
    "##cate": 905,
    "don": 906,
    "silence": 907,
    "minute": 908,
    "kitche": 909,
    "##itchen": 910,
    "cell": 911,
    "##very": 912,
    "sh": 913,
    "##ast": 914,
    "cr": 915,
    "##ery": 916,
    "teleph": 917,
    "##elepho": 918,
    "##lephon": 919,
    "##ephone": 920,
    "##ett": 921,
    "##reat": 922,
    "##nish": 923,
    "##chedule": 924,
    "##tu": 925,
    "crea": 926,
    "incre": 927,
    "##ncrea": 928,
    "##od": 929,
    "##sic": 930,
    "smartph": 931,
    "##martpho": 932,
    "##artphon": 933,
    "##rtphone": 934,
    "##ug": 935,
    "##che": 936,
    "sho": 937,
    "##ook": 938,
    "somewhe": 939,
    "##omewher": 940,
    "##mewhere": 941,
    "##usi": 942,
    "way": 943,
    "##ie": 944,
    "##inis": 945,
    "##teni": 946,
    "##ttings": 947,
    "tak": 948,
    "##king": 949,
    "fini": 950,
    "##able": 951,
    "##day": 952,
    "no": 953,
    "mus": 954,
    "##ature": 955,
    "##inutes": 956,
    "pla": 957,
    "la": 958,
    "##ndr": 959,
    "##'m": 960,
    "loca": 961,
    "##ocat": 962,
    "compute": 963,
    "##omputer": 964,
    "youtube": 965,
    "featu": 966,
    "##eatur": 967,
    "cellpho": 968,
    "##ellphon": 969,
    "##llphone": 970,
    "##mpletel": 971,
    "##pletely": 972,
    "##tti": 973,
    "res": 974,
    "audiob": 975,
    "##udiobo": 976,
    "##dioboo": 977,
    "##iobook": 978,
    "finishe": 979,
    "##inished": 980,
    "##ob": 981,
    "decrea": 982,
    "##ecreas": 983,
    "restor": 984,
    "##estore": 985,
    "workin": 986,
    "##orking": 987,
    "wit": 988,
    "##ith": 989,
    "home": 990,
    "##ork": 991,
    "##eni": 992,
    "meet": 993,
    "##eeti": 994,
    "##etin": 995,
    "##oud": 996,
    "##mute": 997,
    "##ise": 998,
    "##cro": 999,
    "ever": 1000,
    "unmu": 1001,
    "##nmut": 1002,
    "lou": 1003,
    "cu": 1004,
    "##dro": 1005,
    "##roi": 1006,
    "##oid": 1007,
    "##icr": 1008,
    "##dica": 1009,
    "##iv": 1010,
    "adju": 1011,
    "##djus": 1012,
    "##just": 1013,
    "telev": 1014,
    "##elevi": 1015,
    "##levis": 1016,
    "##evisi": 1017,
    "##visio": 1018,
    "##ision": 1019,
    "##oph": 1020,
    "##mber": 1021,
    "tomor": 1022,
    "##omorr": 1023,
    "##morro": 1024,
    "##orrow": 1025,
    "roo": 1026,
    "##oom": 1027,
    "search": 1028,
    "##edi": 1029,
    "eve": 1030,
    "podcas": 1031,
    "##odcast": 1032,
    "med": 1033,
    "ju": 1034,
    "quie": 1035,
    "##uiet": 1036,
    "tinnitus": 1037,
    "##sh": 1038,
    "silenc": 1039,
    "##ilence": 1040,
    "bri": 1041,
    "living": 1042,
    "##lay": 1043,
    "##rm": 1044,
    "##sc": 1045,
    "##oc": 1046,
    "##obi": 1047,
    "laptop": 1048,
    "##rac": 1049,
    "around": 1050,
    "##hed": 1051,
    "##chedul": 1052,
    "##hedule": 1053,
    "rest": 1054,
    "dismiss": 1055,
    "##sion": 1056,
    "minut": 1057,
    "##inute": 1058,
    "kitch": 1059,
    "##itche": 1060,
    "##tchen": 1061,
    "some": 1062,
    "handset": 1063,
    "nearby": 1064,
    "smartp": 1065,
    "##martph": 1066,
    "##artpho": 1067,
    "##rtphon": 1068,
    "##tphone": 1069,
    "##tes": 1070,
    "##edu": 1071,
    "that": 1072,
    "somewh": 1073,
    "##omewhe": 1074,
    "##mewher": 1075,
    "##ewhere": 1076,
    "schedule": 1077,
    "telep": 1078,
    "##eleph": 1079,
    "##lepho": 1080,
    "##ephon": 1081,
    "player": 1082,
    "notifica": 1083,
    "##otificat": 1084,
    "##tificati": 1085,
    "##ificatio": 1086,
    "##fication": 1087,
    "explain": 1088,
    "house": 1089,
    "all": 1090,
    "reduce": 1091,
    "recurrin": 1092,
    "##ecurring": 1093,
    "car": 1094,
    "##ave": 1095,
    "##how": 1096,
    "##tings": 1097,
    "##nce": 1098,
    "##li": 1099,
    "clea": 1100,
    "lower": 1101,
    "##rr": 1102,
    "##hen": 1103,
    "current": 1104,
    "##end": 1105,
    "comput": 1106,
    "##ompute": 1107,
    "##mputer": 1108,
    "youtub": 1109,
    "##outube": 1110,
    "##co": 1111,
    "loude": 1112,
    "##dic": 1113,
    "##bil": 1114,
    "ou": 1115,
    "##ture": 1116,
    "cellph": 1117,
    "##ellpho": 1118,
    "##llphon": 1119,
    "##lphone": 1120,
    "tablet": 1121,
    "##pletel": 1122,
    "##letely": 1123,
    "##nutes": 1124,
    "##ran": 1125,
    "incr": 1126,
    "##ncre": 1127,
    "##rking": 1128,
    "##ini": 1129,
    "##inishe": 1130,
    "##nished": 1131,
    "mob": 1132,
    "##con": 1133,
    "unlink": 1134,
    "ro": 1135,
    "##atur": 1136,
    "##isc": 1137,
    "##sco": 1138,
    "##tment": 1139,
    "what's": 1140,
    "##yi": 1141,
    "##hat's": 1142,
    "##be": 1143,
    "again": 1144,
    "clear": 1145,
    "##ish": 1146,
    "video": 1147,
    "message": 1148,
    "##tor": 1149,
    "ah": 1150,
    "##udiob": 1151,
    "##diobo": 1152,
    "##ioboo": 1153,
    "##obook": 1154,
    "does": 1155,
    "##dl": 1156,
    "decre": 1157,
    "##ecrea": 1158,
    "resto": 1159,
    "##estor": 1160,
    "##store": 1161,
    "tinnitu": 1162,
    "##innitus": 1163,
    "worki": 1164,
    "##orkin": 1165,
    "##ment": 1166,
    "##scriptio": 1167,
    "##cription": 1168,
    "cel": 1169,
    "##da": 1170,
    "##earch": 1171,
    "silen": 1172,
    "##kl": 1173,
    "wi": 1174,
    "##nis": 1175,
    "raise": 1176,
    "##iving": 1177,
    "feat": 1178,
    "##eatu": 1179,
    "iphone": 1180,
    "cre": 1181,
    "##ure": 1182,
    "hou": 1183,
    "##round": 1184,
    "leave": 1185,
    "##dcast": 1186,
    "searc": 1187,
    "it": 1188,
    "schedul": 1189,
    "podca": 1190,
    "##odcas": 1191,
    "##ive": 1192,
    "##ings": 1193,
    "dismis": 1194,
    "##ismiss": 1195,
    "##ilenc": 1196,
    "##lence": 1197,
    "notific": 1198,
    "##otifica": 1199,
    "##tificat": 1200,
    "##ificati": 1201,
    "##ficatio": 1202,
    "##kin": 1203,
    "##no": 1204,
    "handse": 1205,
    "##andset": 1206,
    "##abl": 1207,
    "livin": 1208,
    "##where": 1209,
    "recurri": 1210,
    "##ecurrin": 1211,
    "##curring": 1212,
    "number": 1213,
    "smart": 1214,
    "lapto": 1215,
    "##aptop": 1216,
    "ad": 1217,
    "aroun": 1218,
    "get": 1219,
    "##bl": 1220,
    "cut": 1221,
    "##elev": 1222,
    "##levi": 1223,
    "##evis": 1224,
    "##visi": 1225,
    "##isio": 1226,
    "##ide": 1227,
    "##chedu": 1228,
    "##hedul": 1229,
    "##edule": 1230,
    "##eet": 1231,
    "loc": 1232,
    "##oca": 1233,
    "explai": 1234,
    "##xplain": 1235,
    "end": 1236,
    "walk": 1237,
    "tomo": 1238,
    "##omor": 1239,
    "##morr": 1240,
    "##orro": 1241,
    "##rrow": 1242,
    "send": 1243,
    "##sto": 1244,
    "nearb": 1245,
    "##earby": 1246,
    "here": 1247,
    "##martp": 1248,
    "##artph": 1249,
    "##rtpho": 1250,
    "##tphon": 1251,
    "remember": 1252,
    "somew": 1253,
    "##omewh": 1254,
    "##mewhe": 1255,
    "##ewher": 1256,
    "br": 1257,
    "cl": 1258,
    "##fte": 1259,
    "playe": 1260,
    "##layer": 1261,
    "##ower": 1262,
    "reduc": 1263,
    "##ssi": 1264,
    "curren": 1265,
    "##urrent": 1266,
    "##ill": 1267,
    "##educe": 1268,
    "hom": 1269,
    "mee": 1270,
    "##eti": 1271,
    "##mut": 1272,
    "ra": 1273,
    "##tche": 1274,
    "latest": 1275,
    "unm": 1276,
    "##nmu": 1277,
    "table": 1278,
    "radio": 1279,
    "softe": 1280,
    "minu": 1281,
    "##inut": 1282,
    "##nute": 1283,
    "kitc": 1284,
    "##chen": 1285,
    "app": 1286,
    "close": 1287,
    "en": 1288,
    "activ": 1289,
    "##tur": 1290,
    "compu": 1291,
    "##omput": 1292,
    "##mpute": 1293,
    "##puter": 1294,
    "youtu": 1295,
    "##outub": 1296,
    "##utube": 1297,
    "adj": 1298,
    "##dju": 1299,
    "##jus": 1300,
    "##elep": 1301,
    "##leph": 1302,
    "##epho": 1303,
    "##ouse": 1304,
    "##age": 1305,
    "##mbe": 1306,
    "##ber": 1307,
    "messag": 1308,
    "##essage": 1309,
    "tha": 1310,
    "##scripti": 1311,
    "##criptio": 1312,
    "##ription": 1313,
    "##lo": 1314,
    "loudness": 1315,
    "cellp": 1316,
    "##ellph": 1317,
    "##llpho": 1318,
    "##lphon": 1319,
    "##ablet": 1320,
    "##letel": 1321,
    "##etely": 1322,
    "##and": 1323,
    "hous": 1324,
    "##ok": 1325,
    "##nishe": 1326,
    "##ished": 1327,
    "unlin": 1328,
    "##nlink": 1329,
    "##fter": 1330,
    "as": 1331,
    "##uie": 1332,
    "##iet": 1333,
    "tinnit": 1334,
    "##innitu": 1335,
    "##nnitus": 1336,
    "coming": 1337,
    "what'": 1338,
    "##urr": 1339,
    "##iss": 1340,
    "personal": 1341,
    "adjustme": 1342,
    "##djustmen": 1343,
    "##justment": 1344,
    "lowe": 1345,
    "##stor": 1346,
    "##ep": 1347,
    "##oude": 1348,
    "##dr": 1349,
    "##row": 1350,
    "kno": 1351,
    "morning": 1352,
    "##utes": 1353,
    "##ence": 1354,
    "##tore": 1355,
    "##sio": 1356,
    "som": 1357,
    "##rkin": 1358,
    "active": 1359,
    "##tmen": 1360,
    "##use": 1361,
    "notifi": 1362,
    "schedu": 1363,
    "there": 1364,
    "can't": 1365,
    "##hat'": 1366,
    "##at's": 1367,
    "missing": 1368,
    "agai": 1369,
    "##gain": 1370,
    "##lear": 1371,
    "##n't": 1372,
    "iphon": 1373,
    "late": 1374,
    "vide": 1375,
    "##ideo": 1376,
    "##otific": 1377,
    "##tifica": 1378,
    "##ificat": 1379,
    "##ficati": 1380,
    "cross": 1381,
    "##ew": 1382,
    "##ption": 1383,
    "recurr": 1384,
    "##ecurri": 1385,
    "##currin": 1386,
    "##urring": 1387,
    "##diob": 1388,
    "##iobo": 1389,
    "##oboo": 1390,
    "##book": 1391,
    "remembe": 1392,
    "##emember": 1393,
    "##ving": 1394,
    "##arch": 1395,
    "know": 1396,
    "decr": 1397,
    "##ecre": 1398,
    "##esto": 1399,
    "##ched": 1400,
    "##orki": 1401,
    "ring": 1402,
    "cle": 1403,
    "##earc": 1404,
    "sile": 1405,
    "##ilen": 1406,
    "dismi": 1407,
    "##ismis": 1408,
    "##smiss": 1409,
    "##atu": 1410,
    "##oes": 1411,
    "##ater": 1412,
    "rais": 1413,
    "##aise": 1414,
    "##oss": 1415,
    "hands": 1416,
    "##andse": 1417,
    "##ndset": 1418,
    "##ivin": 1419,
    "numbe": 1420,
    "##umber": 1421,
    "trans": 1422,
    "be": 1423,
    "leav": 1424,
    "##tely": 1425,
    "begin": 1426,
    "near": 1427,
    "##roun": 1428,
    "##eave": 1429,
    "##dcas": 1430,
    "##cast": 1431,
    "inc": 1432,
    "##ncr": 1433,
    "appointm": 1434,
    "##ppointme": 1435,
    "##pointmen": 1436,
    "##ointment": 1437,
    "tell": 1438,
    "expla": 1439,
    "##xplai": 1440,
    "##plain": 1441,
    "##alk": 1442,
    "##script": 1443,
    "sear": 1444,
    "possible": 1445,
    "daily": 1446,
    "##pt": 1447,
    "ev": 1448,
    "##bi": 1449,
    "podc": 1450,
    "##odca": 1451,
    "calls": 1452,
    "##rent": 1453,
    "loudnes": 1454,
    "##oudness": 1455,
    "##lenc": 1456,
    "ugh": 1457,
    "sen": 1458,
    "##men": 1459,
    "livi": 1460,
    "##wher": 1461,
    "##ous": 1462,
    "doe": 1463,
    "curre": 1464,
    "##urren": 1465,
    "##rrent": 1466,
    "##omew": 1467,
    "smar": 1468,
    "##mart": 1469,
    "##du": 1470,
    "lapt": 1471,
    "##apto": 1472,
    "##ptop": 1473,
    "translat": 1474,
    "##pla": 1475,
    "##ink": 1476,
    "ha": 1477,
    "arou": 1478,
    "where's": 1479,
    "persona": 1480,
    "##ersonal": 1481,
    "##cripti": 1482,
    "##riptio": 1483,
    "##iption": 1484,
    "quieter": 1485,
    "adjustm": 1486,
    "##djustme": 1487,
    "##justmen": 1488,
    "##ustment": 1489,
    "misplace": 1490,
    "##isplaced": 1491,
    "ipad": 1492,
    "##hedu": 1493,
    "##edul": 1494,
    "##dule": 1495,
    "prescrip": 1496,
    "##rescript": 1497,
    "##escripti": 1498,
    "lates": 1499,
    "##atest": 1500,
    "soft": 1501,
    "##gin": 1502,
    "##isi": 1503,
    "fea": 1504,
    "##av": 1505,
    "##earb": 1506,
    "##arby": 1507,
    "##artp": 1508,
    "##rtph": 1509,
    "##tpho": 1510,
    "##nk": 1511,
    "rec": 1512,
    "##mewh": 1513,
    "##ewhe": 1514,
    "##hing": 1515,
    "ip": 1516,
    "min": 1517,
    "##laye": 1518,
    "##ayer": 1519,
    "messa": 1520,
    "##essag": 1521,
    "##ssage": 1522,
    "pu": 1523,
    "one": 1524,
    "redu": 1525,
    "##educ": 1526,
    "##duce": 1527,
    "cros": 1528,
    "##ctiv": 1529,
    "##pp": 1530,
    "shut": 1531,
    "und": 1532,
    "##tel": 1533,
    "tinni": 1534,
    "##innit": 1535,
    "##nnitu": 1536,
    "##nitus": 1537,
    "comin": 1538,
    "##oming": 1539,
    "##ngs": 1540,
    "##orr": 1541,
    "radi": 1542,
    "mornin": 1543,
    "##orning": 1544,
    "tabl": 1545,
    "##adio": 1546,
    "##ofte": 1547,
    "tom": 1548,
    "person": 1549,
    "clos": 1550,
    "##lose": 1551,
    "today": 1552,
    "her": 1553,
    "##lev": 1554,
    "##vis": 1555,
    "acti": 1556,
    "##ishe": 1557,
    "low": 1558,
    "missin": 1559,
    "##issing": 1560,
    "everyday": 1561,
    "##ompu": 1562,
    "##mput": 1563,
    "##pute": 1564,
    "##uter": 1565,
    "yout": 1566,
    "##outu": 1567,
    "##utub": 1568,
    "##tube": 1569,
    "notif": 1570,
    "louder": 1571,
    "##ifica": 1572,
    "##ellp": 1573,
    "##llph": 1574,
    "##lpho": 1575,
    "##blet": 1576,
    "##scri": 1577,
    "##etel": 1578,
    "undo": 1579,
    "wal": 1580,
    "##omo": 1581,
    "##rro": 1582,
    "##ivi": 1583,
    "##shed": 1584,
    "##owe": 1585,
    "##here's": 1586,
    "##ctive": 1587,
    "unli": 1588,
    "##nlin": 1589,
    "##link": 1590,
    "rememb": 1591,
    "##emembe": 1592,
    "##member": 1593,
    "##wer": 1594,
    "##omi": 1595,
    "hand": 1596,
    "dial": 1597,
    "customiz": 1598,
    "##otifi": 1599,
    "sched": 1600,
    "##bo": 1601,
    "little": 1602,
    "last": 1603,
    "appoint": 1604,
    "##ppointm": 1605,
    "##pointme": 1606,
    "##ointmen": 1607,
    "##intment": 1608,
    "##na": 1609,
    "##tific": 1610,
    "##ficat": 1611,
    "cro": 1612,
    "recur": 1613,
    "##ecurr": 1614,
    "##curri": 1615,
    "##urrin": 1616,
    "##rring": 1617,
    "possibl": 1618,
    "##ossible": 1619,
    "##if": 1620,
    "noise": 1621,
    "##mu": 1622,
    "##ember": 1623,
    "##our": 1624,
    "##inu": 1625,
    "##nut": 1626,
    "not": 1627,
    "ther": 1628,
    "ce": 1629,
    "kit": 1630,
    "##ross": 1631,
    "##lep": 1632,
    "##ial": 1633,
    "transla": 1634,
    "##ranslat": 1635,
    "can'": 1636,
    "##an't": 1637,
    "fe": 1638,
    "##eph": 1639,
    "##ost": 1640,
    "ipho": 1641,
    "loudne": 1642,
    "##oudnes": 1643,
    "##udness": 1644,
    "##ustomize": 1645,
    "misplac": 1646,
    "##isplace": 1647,
    "##splaced": 1648,
    "prescri": 1649,
    "##rescrip": 1650,
    "##escript": 1651,
    "po": 1652,
    "ge": 1653,
    "##ab": 1654,
    "ar": 1655,
    "##ptio": 1656,
    "mis": 1657,
    "where'": 1658,
    "##enc": 1659,
    "##lin": 1660,
    "##scrip": 1661,
    "##cript": 1662,
    "##ren": 1663,
    "##ersona": 1664,
    "##rsonal": 1665,
    "##rans": 1666,
    "quiete": 1667,
    "##uieter": 1668,
    "##djustm": 1669,
    "##justme": 1670,
    "##ustmen": 1671,
    "##stment": 1672,
    "##ude": 1673,
    "##ands": 1674,
    "dism": 1675,
    "##ismi": 1676,
    "##smis": 1677,
    "##miss": 1678,
    "##ki": 1679,
    "put": 1680,
    "##ndse": 1681,
    "##dset": 1682,
    "##ates": 1683,
    "##rie": 1684,
    "##lls": 1685,
    "numb": 1686,
    "##umbe": 1687,
    "##rch": 1688,
    "tran": 1689,
    "##alls": 1690,
    "##ely": 1691,
    "##len": 1692,
    "begi": 1693,
    "##egin": 1694,
    "##ag": 1695,
    "dail": 1696,
    "expl": 1697,
    "route": 1698,
    "##ripti": 1699,
    "##iptio": 1700,
    "##ma": 1701,
    "##rki": 1702,
    "sc": 1703,
    "tv": 1704,
    "##ries": 1705,
    "##xpla": 1706,
    "##plai": 1707,
    "##lain": 1708,
    "dec": 1709,
    "##tme": 1710,
    "##apt": 1711,
    "##at'": 1712,
    "##aily": 1713,
    "aga": 1714,
    "##gai": 1715,
    "nois": 1716,
    "everyda": 1717,
    "##veryday": 1718,
    "##ose": 1719,
    "##rning": 1720,
    "##vin": 1721,
    "lat": 1722,
    "vid": 1723,
    "##deo": 1724,
    "##boo": 1725,
    "afternoo": 1726,
    "##fternoon": 1727,
    "restaura": 1728,
    "##estauran": 1729,
    "##staurant": 1730,
    "vi": 1731,
    "##iob": 1732,
    "##obo": 1733,
    "##nm": 1734,
    "##sta": 1735,
    "##mb": 1736,
    "curr": 1737,
    "##urre": 1738,
    "##rren": 1739,
    "##arc": 1740,
    "lea": 1741,
    "##hin": 1742,
    "##now": 1743,
    "##ecr": 1744,
    "after": 1745,
    "customi": 1746,
    "##ustomiz": 1747,
    "liv": 1748,
    "rin": 1749,
    "##sage": 1750,
    "##test": 1751,
    "##ail": 1752,
    "morni": 1753,
    "##ornin": 1754,
    "sil": 1755,
    "rai": 1756,
    "kill": 1757,
    "##ais": 1758,
    "##gi": 1759,
    "perso": 1760,
    "##erson": 1761,
    "sea": 1762,
    "ap": 1763,
    "##ppoint": 1764,
    "##mar": 1765,
    "##eav": 1766,
    "##cas": 1767,
    "about": 1768,
    "##ns": 1769,
    "missi": 1770,
    "##issin": 1771,
    "##ssing": 1772,
    "##nitu": 1773,
    "amplify": 1774,
    "nea": 1775,
    "##dj": 1776,
    "##ju": 1777,
    "##dca": 1778,
    "appoin": 1779,
    "##pointm": 1780,
    "##ointme": 1781,
    "##intmen": 1782,
    "##ntment": 1783,
    "mess": 1784,
    "##essa": 1785,
    "##ssag": 1786,
    "mor": 1787,
    "##whe": 1788,
    "##here'": 1789,
    "##ere's": 1790,
    "##ittle": 1791,
    "##ouder": 1792,
    "##tiv": 1793,
    "have": 1794,
    "##rc": 1795,
    "##nds": 1796,
    "tinn": 1797,
    "##tive": 1798,
    "possib": 1799,
    "##ossibl": 1800,
    "##ssible": 1801,
    "remem": 1802,
    "##ememb": 1803,
    "##membe": 1804,
    "##fic": 1805,
    "pod": 1806,
    "##odc": 1807,
    "##sing": 1808,
    "##eo": 1809,
    "##inni": 1810,
    "##nnit": 1811,
    "##itus": 1812,
    "comi": 1813,
    "##omin": 1814,
    "softer": 1815,
    "custom": 1816,
    "##stomize": 1817,
    "littl": 1818,
    "da": 1819,
    "##otif": 1820,
    "##ros": 1821,
    "##ories": 1822,
    "toda": 1823,
    "##oday": 1824,
    "batter": 1825,
    "##mew": 1826,
    "sma": 1827,
    "##inn": 1828,
    "pres": 1829,
    "noti": 1830,
    "lap": 1831,
    "##pto": 1832,
    "hook": 1833,
    "transl": 1834,
    "##ransla": 1835,
    "##anslat": 1836,
    "louden": 1837,
    "##adi": 1838,
    "aro": 1839,
    "##duc": 1840,
    "##arb": 1841,
    "##n'": 1842,
    "mispla": 1843,
    "##isplac": 1844,
    "##splace": 1845,
    "##placed": 1846,
    "kn": 1847,
    "ipa": 1848,
    "##pad": 1849,
    "##dul": 1850,
    "##ule": 1851,
    "prescr": 1852,
    "##rescri": 1853,
    "##escrip": 1854,
    "##ific": 1855,
    "##fica": 1856,
    "##nni": 1857,
    "sof": 1858,
    "##oft": 1859,
    "##she": 1860,
    "##ls": 1861,
    "##rby": 1862,
    "##rtp": 1863,
    "##tph": 1864,
    "sch": 1865,
    "##put": 1866,
    "##ewh": 1867,
    "##ance": 1868,
    "##oise": 1869,
    "##ecur": 1870,
    "##tifi": 1871,
    "sche": 1872,
    "cur": 1873,
    "##'t": 1874,
    "red": 1875,
    "##aye": 1876,
    "##yer": 1877,
    "loudn": 1878,
    "##oudne": 1879,
    "##udnes": 1880,
    "##dness": 1881,
    "##uce": 1882,
    "evening": 1883,
    "##oe": 1884,
    "clo": 1885,
    "pa": 1886,
    "rad": 1887,
    "shu": 1888,
    "##hut": 1889,
    "recu": 1890,
    "##curr": 1891,
    "##urri": 1892,
    "##rrin": 1893,
    "si": 1894,
    "##utu": 1895,
    "##lk": 1896,
    "##ir": 1897,
    "##ub": 1898,
    "##embe": 1899,
    "battery": 1900,
    "afterno": 1901,
    "##fternoo": 1902,
    "##ternoon": 1903,
    "restaur": 1904,
    "##estaura": 1905,
    "##stauran": 1906,
    "##taurant": 1907,
    "##rsona": 1908,
    "##sonal": 1909,
    "##ndo": 1910,
    "tab": 1911,
    "##uiete": 1912,
    "##ieter": 1913,
    "##justm": 1914,
    "##ustme": 1915,
    "##stmen": 1916,
    "##los": 1917,
    "##we": 1918,
    "act": 1919,
    "##res": 1920,
    "##lph": 1921,
    "han": 1922,
    "everyd": 1923,
    "##veryda": 1924,
    "##eryday": 1925,
    "dia": 1926,
    "##mpu": 1927,
    "##tub": 1928,
    "##ube": 1929,
    "understa": 1930,
    "##nderstan": 1931,
    "##derstand": 1932,
    "##ness": 1933,
    "thrive": 1934,
    "pairing": 1935,
    "mode": 1936,
    "##llp": 1937,
    "unl": 1938,
    "##scr": 1939,
    "##cri": 1940,
    "##ori": 1941,
    "las": 1942,
    "##nli": 1943,
    "##uc": 1944,
    "##ia": 1945,
    "ac": 1946,
    "##set": 1947,
    "##crip": 1948,
    "##ript": 1949,
    "amplif": 1950,
    "##ustomi": 1951,
    "##stomiz": 1952,
    "##oon": 1953,
    "mas": 1954,
    "##tter": 1955,
    "pick": 1956,
    "##ustments": 1957,
    "##ily": 1958,
    "boost": 1959,
    "ug": 1960,
    "##an'": 1961,
    "mod": 1962,
    "man": 1963,
    "##nu": 1964,
    "##ext": 1965,
    "##onal": 1966,
    "##mplify": 1967,
    "add": 1968,
    "##orie": 1969,
    "##ap": 1970,
    "##ga": 1971,
    "rout": 1972,
    "##oute": 1973,
    "##ipti": 1974,
    "water": 1975,
    "##egi": 1976,
    "##nit": 1977,
    "pre": 1978,
    "##smi": 1979,
    "soften": 1980,
    "##stan": 1981,
    "mask": 1982,
    "##ans": 1983,
    "bit": 1984,
    "##pe": 1985,
    "##ppoin": 1986,
    "##point": 1987,
    "calorie": 1988,
    "##rnin": 1989,
    "charge": 1990,
    "miss": 1991,
    "iph": 1992,
    "##dnes": 1993,
    "##tomize": 1994,
    "##ies": 1995,
    "##pti": 1996,
    "appoi": 1997,
    "##ointm": 1998,
    "##intme": 1999,
    "##ntmen": 2000,
    "week": 2001,
    "##umb": 2002,
    "when": 2003,
    "afte": 2004,
    "crank": 2005,
    "possi": 2006,
    "##ossib": 2007,
    "##ssibl": 2008,
    "##sible": 2009,
    "##oin": 2010,
    "exp": 2011,
    "##gs": 2012,
    "##sa": 2013,
    "ex": 2014,
    "speech": 2015,
    "morn": 2016,
    "##orni": 2017,
    "pair": 2018,
    "##ism": 2019,
    "##mis": 2020,
    "##atter": 2021,
    "##ofter": 2022,
    "custo": 2023,
    "##ustom": 2024,
    "##dse": 2025,
    "##ois": 2026,
    "pers": 2027,
    "##erso": 2028,
    "##rson": 2029,
    "##tan": 2030,
    "num": 2031,
    "batte": 2032,
    "##ransl": 2033,
    "##ansla": 2034,
    "##nslat": 2035,
    "##ouden": 2036,
    "calories": 2037,
    "abou": 2038,
    "##bout": 2039,
    "##issi": 2040,
    "##ssin": 2041,
    "##ere'": 2042,
    "beg": 2043,
    "did": 2044,
    "dai": 2045,
    "##xpl": 2046,
    "mispl": 2047,
    "##ispla": 2048,
    "##splac": 2049,
    "##place": 2050,
    "##laced": 2051,
    "score": 2052,
    "presc": 2053,
    "##rescr": 2054,
    "##escri": 2055,
    "evenin": 2056,
    "##vening": 2057,
    "##re's": 2058,
    "##fi": 2059,
    "##nes": 2060,
    "##ittl": 2061,
    "##ttle": 2062,
    "##uder": 2063,
    "##lai": 2064,
    "##do": 2065,
    "##pa": 2066,
    "##tte": 2067,
    "noi": 2068,
    "underst": 2069,
    "##ndersta": 2070,
    "##derstan": 2071,
    "##erstand": 2072,
    "bi": 2073,
    "reme": 2074,
    "##emem": 2075,
    "##memb": 2076,
    "##attery": 2077,
    "aftern": 2078,
    "##fterno": 2079,
    "##ternoo": 2080,
    "##ernoon": 2081,
    "restau": 2082,
    "##estaur": 2083,
    "##staura": 2084,
    "##tauran": 2085,
    "##aurant": 2086,
    "boo": 2087,
    "manage": 2088,
    "litt": 2089,
    "##rre": 2090,
    "##itu": 2091,
    "exercise": 2092,
    "##har": 2093,
    "##sag": 2094,
    "pairin": 2095,
    "##airing": 2096,
    "medicine": 2097,
    "##tus": 2098,
    "##eme": 2099,
    "##stments": 2100,
    "##sin": 2101,
    "##tom": 2102,
    "kil": 2103,
    "##eter": 2104,
    "transcri": 2105,
    "##ersonali": 2106,
    "##rsonaliz": 2107,
    "wonderin": 2108,
    "##ondering": 2109,
    "too": 2110,
    "hav": 2111,
    "##veryd": 2112,
    "##eryda": 2113,
    "##ryday": 2114,
    "##of": 2115,
    "thing": 2116,
    "thriv": 2117,
    "##hrive": 2118,
    "mes": 2119,
    "##ssa": 2120,
    "##oudn": 2121,
    "##udne": 2122,
    "##sonalize": 2123,
    "tin": 2124,
    "hour": 2125,
    "##oti": 2126,
    "charg": 2127,
    "##harge": 2128,
    "ampli": 2129,
    "##mplif": 2130,
    "##stomi": 2131,
    "##tomiz": 2132,
    "##ove": 2133,
    "##lace": 2134,
    "##sona": 2135,
    "##tif": 2136,
    "##iete": 2137,
    "##ustm": 2138,
    "##stme": 2139,
    "##ize": 2140,
    "##oint": 2141,
    "##ifi": 2142,
    "##esc": 2143,
    "tod": 2144,
    "##oda": 2145,
    "voice": 2146,
    "hoo": 2147,
    "lost": 2148,
    "ag": 2149,
    "calori": 2150,
    "##alorie": 2151,
    "repeat": 2152,
    "##tm": 2153,
    "##cur": 2154,
    "##plify": 2155,
    "##anc": 2156,
    "##oost": 2157,
    "cancel": 2158,
    "before": 2159,
    "alert": 2160,
    "##often": 2161,
    "##rri": 2162,
    "##ecu": 2163,
    "##alories": 2164,
    "##oice": 2165,
    "##ranslate": 2166,
    "use": 2167,
    "per": 2168,
    "##emb": 2169,
    "##omize": 2170,
    "##hu": 2171,
    "boos": 2172,
    "##dit": 2173,
    "exercis": 2174,
    "are": 2175,
    "push": 2176,
    "##ode": 2177,
    "outdoors": 2178,
    "##ock": 2179,
    "##tand": 2180,
    "speec": 2181,
    "##peech": 2182,
    "##ible": 2183,
    "wate": 2184,
    "##rge": 2185,
    "##xercise": 2186,
    "unders": 2187,
    "##nderst": 2188,
    "##dersta": 2189,
    "##erstan": 2190,
    "##rstand": 2191,
    "delete": 2192,
    "medicin": 2193,
    "##edicine": 2194,
    "##ppoi": 2195,
    "##poin": 2196,
    "reschedu": 2197,
    "##eschedul": 2198,
    "##schedule": 2199,
    "##nal": 2200,
    "##ipt": 2201,
    "knock": 2202,
    "sm": 2203,
    "##ip": 2204,
    "nu": 2205,
    "##dc": 2206,
    "##pli": 2207,
    "##rank": 2208,
    "appo": 2209,
    "##intm": 2210,
    "##ntme": 2211,
    "transcr": 2212,
    "##ranscri": 2213,
    "##rsonali": 2214,
    "##sonaliz": 2215,
    "wonderi": 2216,
    "##onderin": 2217,
    "##ndering": 2218,
    "eveni": 2219,
    "##venin": 2220,
    "##wh": 2221,
    "manag": 2222,
    "guide": 2223,
    "##rni": 2224,
    "##rip": 2225,
    "##air": 2226,
    "automati": 2227,
    "##utomatic": 2228,
    "##au": 2229,
    "##ye": 2230,
    "cran": 2231,
    "##ze": 2232,
    "poss": 2233,
    "##ossi": 2234,
    "##ssib": 2235,
    "##sibl": 2236,
    "pic": 2237,
    "##ify": 2238,
    "##are": 2239,
    "##tments": 2240,
    "friday": 2241,
    "access": 2242,
    "##ttery": 2243,
    "##ftern": 2244,
    "##terno": 2245,
    "##ernoo": 2246,
    "##rnoon": 2247,
    "resta": 2248,
    "##estau": 2249,
    "##staur": 2250,
    "##taura": 2251,
    "##auran": 2252,
    "##urant": 2253,
    "##anage": 2254,
    "##atte": 2255,
    "cust": 2256,
    "##usto": 2257,
    "##stom": 2258,
    "##onalize": 2259,
    "next": 2260,
    "##noo": 2261,
    "ti": 2262,
    "##tp": 2263,
    "we": 2264,
    "batt": 2265,
    "##rb": 2266,
    "spe": 2267,
    "##ona": 2268,
    "##rive": 2269,
    "update": 2270,
    "doctor": 2271,
    "##ansl": 2272,
    "##nsla": 2273,
    "##slat": 2274,
    "##uden": 2275,
    "changing": 2276,
    "pairi": 2277,
    "##airin": 2278,
    "##iring": 2279,
    "resume": 2280,
    "##ted": 2281,
    "outdoor": 2282,
    "rou": 2283,
    "##tle": 2284,
    "disable": 2285,
    "misp": 2286,
    "##ispl": 2287,
    "##spla": 2288,
    "##plac": 2289,
    "##aced": 2290,
    "bump": 2291,
    "scor": 2292,
    "##core": 2293,
    "##resc": 2294,
    "##escr": 2295,
    "##cor": 2296,
    "##by": 2297,
    "##e's": 2298,
    "##itt": 2299,
    "enable": 2300,
    "##pu": 2301,
    "thin": 2302,
    "assistan": 2303,
    "accessor": 2304,
    "##dne": 2305,
    "##ex": 2306,
    "bu": 2307,
    "wee": 2308,
    "##eek": 2309,
    "ton": 2310,
    "##so": 2311,
    "##son": 2312,
    "##orn": 2313,
    "remove": 2314,
    "##nl": 2315,
    "aft": 2316,
    "pai": 2317,
    "##harg": 2318,
    "pi": 2319,
    "drop": 2320,
    "##ranscrib": 2321,
    "ease": 2322,
    "##anslate": 2323,
    "##ttl": 2324,
    "##int": 2325,
    "##thing": 2326,
    "##rso": 2327,
    "##ppo": 2328,
    "##lories": 2329,
    "abo": 2330,
    "##bou": 2331,
    "pe": 2332,
    "##ther": 2333,
    "##re'": 2334,
    "##eryd": 2335,
    "##ryda": 2336,
    "##yday": 2337,
    "##utdoors": 2338,
    "##anscribe": 2339,
    "##ften": 2340,
    "##ank": 2341,
    "thri": 2342,
    "##hriv": 2343,
    "duplicat": 2344,
    "##uplicate": 2345,
    "noon": 2346,
    "calor": 2347,
    "##alori": 2348,
    "##lorie": 2349,
    "repea": 2350,
    "##epeat": 2351,
    "##ace": 2352,
    "wat": 2353,
    "##arge": 2354,
    "##ging": 2355,
    "##dd": 2356,
    "exerci": 2357,
    "##xercis": 2358,
    "##eri": 2359,
    "##ond": 2360,
    "cance": 2361,
    "##ancel": 2362,
    "##mem": 2363,
    "wonder": 2364,
    "ren": 2365,
    "befor": 2366,
    "##efore": 2367,
    "resched": 2368,
    "##eschedu": 2369,
    "##schedul": 2370,
    "us": 2371,
    "char": 2372,
    "even": 2373,
    "##ranslati": 2374,
    "ampl": 2375,
    "##mpli": 2376,
    "##plif": 2377,
    "##ssistant": 2378,
    "##tomi": 2379,
    "##omiz": 2380,
    "lit": 2381,
    "##ci": 2382,
    "##xt": 2383,
    "dr": 2384,
    "heart": 2385,
    "##ercise": 2386,
    "voic": 2387,
    "medici": 2388,
    "##edicin": 2389,
    "##dicine": 2390,
    "automat": 2391,
    "##utomati": 2392,
    "##tomatic": 2393,
    "weekend": 2394,
    "o'clock": 2395,
    "now": 2396,
    "##lat": 2397,
    "hours": 2398,
    "auditori": 2399,
    "##uditoriu": 2400,
    "##ditorium": 2401,
    "three": 2402,
    "differen": 2403,
    "##lify": 2404,
    "##eg": 2405,
    "##ood": 2406,
    "transc": 2407,
    "##ranscr": 2408,
    "##anscri": 2409,
    "##stm": 2410,
    "##sonali": 2411,
    "##onaliz": 2412,
    "##onderi": 2413,
    "##nderin": 2414,
    "##dering": 2415,
    "goal": 2416,
    "aler": 2417,
    "##lert": 2418,
    "##sm": 2419,
    "##ib": 2420,
    "los": 2421,
    "##lac": 2422,
    "under": 2423,
    "##derst": 2424,
    "##ersta": 2425,
    "##rstan": 2426,
    "##stand": 2427,
    "##nging": 2428,
    "changin": 2429,
    "##hanging": 2430,
    "delet": 2431,
    "##elete": 2432,
    "drink": 2433,
    "reco": 2434,
    "spee": 2435,
    "programs": 2436,
    "##udn": 2437,
    "tone": 2438,
    "##mize": 2439,
    "##nalize": 2440,
    "grocer": 2441,
    "##po": 2442,
    "assista": 2443,
    "##ssistan": 2444,
    "accesso": 2445,
    "##ccessor": 2446,
    "##cu": 2447,
    "outdoo": 2448,
    "##utdoor": 2449,
    "fri": 2450,
    "disabl": 2451,
    "##isable": 2452,
    "monday": 2453,
    "##xp": 2454,
    "rename": 2455,
    "##nable": 2456,
    "##ments": 2457,
    "frida": 2458,
    "##riday": 2459,
    "acces": 2460,
    "##ccess": 2461,
    "blood": 2462,
    "##peec": 2463,
    "##eech": 2464,
    "##uran": 2465,
    "question": 2466,
    "mana": 2467,
    "pressure": 2468,
    "##ced": 2469,
    "##ush": 2470,
    "##ame": 2471,
    "##ree": 2472,
    "##oos": 2473,
    "##ts": 2474,
    "##ov": 2475,
    "theater": 2476,
    "##anscrib": 2477,
    "##tern": 2478,
    "updat": 2479,
    "##pdate": 2480,
    "docto": 2481,
    "##octor": 2482,
    "don't": 2483,
    "knoc": 2484,
    "##nock": 2485,
    "guid": 2486,
    "resum": 2487,
    "##esume": 2488,
    "##veni": 2489,
    "##rant": 2490,
    "##anag": 2491,
    "##uide": 2492,
    "enabl": 2493,
    "##ering": 2494,
    "##for": 2495,
    "##oic": 2496,
    "##ors": 2497,
    "##nscribe": 2498,
    "##nslate": 2499,
    "##rst": 2500,
    "duplica": 2501,
    "##uplicat": 2502,
    "##plicate": 2503,
    "##tery": 2504,
    "##erno": 2505,
    "##rnoo": 2506,
    "##noon": 2507,
    "##esta": 2508,
    "##stau": 2509,
    "##taur": 2510,
    "##aura": 2511,
    "##nage": 2512,
    "##urs": 2513,
    "max": 2514,
    "##iz": 2515,
    "clean": 2516,
    "remov": 2517,
    "##emove": 2518,
    "##ster": 2519,
    "pus": 2520,
    "office": 2521,
    "##tdoors": 2522,
    "##tl": 2523,
    "##anslatio": 2524,
    "##nslation": 2525,
    "##den": 2526,
    "##airi": 2527,
    "##irin": 2528,
    "snooze": 2529,
    "##anslati": 2530,
    "##sistant": 2531,
    "cra": 2532,
    "##ibl": 2533,
    "more": 2534,
    "sp": 2535,
    "##anging": 2536,
    "##poi": 2537,
    "resche": 2538,
    "##esched": 2539,
    "##schedu": 2540,
    "##lori": 2541,
    "auditor": 2542,
    "##uditori": 2543,
    "##ditoriu": 2544,
    "##itorium": 2545,
    "worship": 2546,
    "differe": 2547,
    "##ifferen": 2548,
    "##ifferent": 2549,
    "recovery": 2550,
    "lunch": 2551,
    "##isp": 2552,
    "##riv": 2553,
    "##ntm": 2554,
    "##ert": 2555,
    "##thin": 2556,
    "text": 2557,
    "automa": 2558,
    "##utomat": 2559,
    "##tomati": 2560,
    "##omatic": 2561,
    "##on't": 2562,
    "##ump": 2563,
    "sco": 2564,
    "weeken": 2565,
    "##eekend": 2566,
    "pos": 2567,
    "##sib": 2568,
    "o'cloc": 2569,
    "##'clock": 2570,
    "exerc": 2571,
    "##xerci": 2572,
    "##ercis": 2573,
    "wonde": 2574,
    "##onder": 2575,
    "##alize": 2576,
    "##att": 2577,
    "recover": 2578,
    "##rograms": 2579,
    "cus": 2580,
    "nex": 2581,
    "##rg": 2582,
    "##mati": 2583,
    "##rcise": 2584,
    "bat": 2585,
    "school": 2586,
    "##nsl": 2587,
    "##sla": 2588,
    "assist": 2589,
    "changi": 2590,
    "##hangin": 2591,
    "##edici": 2592,
    "##dicin": 2593,
    "##icine": 2594,
    "calo": 2595,
    "##alor": 2596,
    "repe": 2597,
    "##epea": 2598,
    "##peat": 2599,
    "##eart": 2600,
    "acce": 2601,
    "##spl": 2602,
    "##nts": 2603,
    "bum": 2604,
    "##ali": 2605,
    "##iew": 2606,
    "running": 2607,
    "someone": 2608,
    "questio": 2609,
    "##uestion": 2610,
    "intelli": 2611,
    "pressur": 2612,
    "##ressure": 2613,
    "##ransc": 2614,
    "##anscr": 2615,
    "##nscri": 2616,
    "##onali": 2617,
    "##naliz": 2618,
    "##nderi": 2619,
    "##derin": 2620,
    "##ours": 2621,
    "##the": 2622,
    "new": 2623,
    "##ine": 2624,
    "dro": 2625,
    "canc": 2626,
    "##ncel": 2627,
    "##ssista": 2628,
    "##sistan": 2629,
    "##ccesso": 2630,
    "##cessor": 2631,
    "##hri": 2632,
    "befo": 2633,
    "##efor": 2634,
    "##fore": 2635,
    "##arg": 2636,
    "ale": 2637,
    "int": 2638,
    "eas": 2639,
    "##istan": 2640,
    "##ngin": 2641,
    "##sable": 2642,
    "groce": 2643,
    "##rocer": 2644,
    "theate": 2645,
    "##heater": 2646,
    "two": 2647,
    "##nscrib": 2648,
    "##dn": 2649,
    "##istant": 2650,
    "forget": 2651,
    "four": 2652,
    "thre": 2653,
    "##hree": 2654,
    "##ven": 2655,
    "outdo": 2656,
    "##utdoo": 2657,
    "##tdoor": 2658,
    "##tions": 2659,
    "disab": 2660,
    "##isabl": 2661,
    "monda": 2662,
    "##onday": 2663,
    "renam": 2664,
    "##ename": 2665,
    "tonight": 2666,
    "##ryd": 2667,
    "##yda": 2668,
    "master": 2669,
    "##scribe": 2670,
    "##nslatio": 2671,
    "##slation": 2672,
    "unde": 2673,
    "##erst": 2674,
    "##rsta": 2675,
    "##nday": 2676,
    "##cess": 2677,
    "dele": 2678,
    "##elet": 2679,
    "view": 2680,
    "duplic": 2681,
    "##uplica": 2682,
    "##plicat": 2683,
    "##licate": 2684,
    "noo": 2685,
    "drin": 2686,
    "##rink": 2687,
    "later": 2688,
    "rea": 2689,
    "##ler": 2690,
    "##ech": 2691,
    "##ura": 2692,
    "##nslati": 2693,
    "amp": 2694,
    "##lif": 2695,
    "##miz": 2696,
    "##iri": 2697,
    "##tanding": 2698,
    "##fferent": 2699,
    "##slate": 2700,
    "##ecovery": 2701,
    "##e'": 2702,
    "##fy": 2703,
    "##ctor": 2704,
    "##nabl": 2705,
    "##late": 2706,
    "##ents": 2707,
    "frid": 2708,
    "##rida": 2709,
    "##iday": 2710,
    "##cces": 2711,
    "bloo": 2712,
    "##lood": 2713,
    "voi": 2714,
    "su": 2715,
    "##alking": 2716,
    "offic": 2717,
    "##ffice": 2718,
    "##pee": 2719,
    "audito": 2720,
    "##uditor": 2721,
    "##ditori": 2722,
    "##itoriu": 2723,
    "##torium": 2724,
    "worshi": 2725,
    "##orship": 2726,
    "##doors": 2727,
    "differ": 2728,
    "##iffere": 2729,
    "##fferen": 2730,
    "upda": 2731,
    "##pdat": 2732,
    "##date": 2733,
    "doct": 2734,
    "##octo": 2735,
    "don'": 2736,
    "snooz": 2737,
    "##nooze": 2738,
    "resu": 2739,
    "##esum": 2740,
    "##sume": 2741,
    "goa": 2742,
    "##oal": 2743,
    "##upl": 2744,
    "enab": 2745,
    "it's": 2746,
    "##erin": 2747,
    "##lean": 2748,
    "rate": 2749,
    "##matic": 2750,
    "##angin": 2751,
    "resch": 2752,
    "##esche": 2753,
    "##sched": 2754,
    "##eco": 2755,
    "af": 2756,
    "recove": 2757,
    "##ecover": 2758,
    "##ograms": 2759,
    "##up": 2760,
    "am": 2761,
    "##ek": 2762,
    "##rain": 2763,
    "daughter": 2764,
    "feed": 2765,
    "##emov": 2766,
    "##move": 2767,
    "memories": 2768,
    "audiolog": 2769,
    "##udiologi": 2770,
    "##diologis": 2771,
    "##iologist": 2772,
    "##uid": 2773,
    "fa": 2774,
    "autom": 2775,
    "##utoma": 2776,
    "##tomat": 2777,
    "##omati": 2778,
    "##feren": 2779,
    "##su": 2780,
    "##stant": 2781,
    "##essor": 2782,
    "weeke": 2783,
    "##eeken": 2784,
    "##ekend": 2785,
    "o'clo": 2786,
    "##'cloc": 2787,
    "##clock": 2788,
    "##ding": 2789,
    "ab": 2790,
    "runnin": 2791,
    "##unning": 2792,
    "##eec": 2793,
    "someon": 2794,
    "##omeone": 2795,
    "friend": 2796,
    "inte": 2797,
    "questi": 2798,
    "##uestio": 2799,
    "##estion": 2800,
    "##ana": 2801,
    "dinner": 2802,
    "intell": 2803,
    "##ntelli": 2804,
    "edit": 2805,
    "pressu": 2806,
    "##ressur": 2807,
    "##essure": 2808,
    "train": 2809,
    "##ern": 2810,
    "##cover": 2811,
    "schoo": 2812,
    "##chool": 2813,
    "##noc": 2814,
    "assis": 2815,
    "##ssist": 2816,
    "##hangi": 2817,
    "gui": 2818,
    "pause": 2819,
    "many": 2820,
    "##erci": 2821,
    "speciali": 2822,
    "##pecialis": 2823,
    "##ecialist": 2824,
    "##aliz": 2825,
    "lunc": 2826,
    "##unch": 2827,
    "meditate": 2828,
    "##pea": 2829,
    "fee": 2830,
    "##lation": 2831,
    "##ean": 2832,
    "##nag": 2833,
    "masker": 2834,
    "couple": 2835,
    "exer": 2836,
    "##xerc": 2837,
    "##rcis": 2838,
    "##sista": 2839,
    "wond": 2840,
    "##onde": 2841,
    "##cesso": 2842,
    "##lize": 2843,
    "##rno": 2844,
    "##tau": 2845,
    "##aur": 2846,
    "##lor": 2847,
    "aerobics": 2848,
    "##erc": 2849,
    "##cise": 2850,
    "mon": 2851,
    "tonigh": 2852,
    "##onight": 2853,
    "##ything": 2854,
    "tex": 2855,
    "del": 2856,
    "##slatio": 2857,
    "fall": 2858,
    "modify": 2859,
    "##dici": 2860,
    "##icin": 2861,
    "##cine": 2862,
    "##aster": 2863,
    "theat": 2864,
    "##heate": 2865,
    "##eater": 2866,
    "##scrib": 2867,
    "forge": 2868,
    "##orget": 2869,
    "##icate": 2870,
    "##ax": 2871,
    "##nte": 2872,
    "##ny": 2873,
    "much": 2874,
    "##sp": 2875,
    "##ansc": 2876,
    "##nscr": 2877,
    "##roce": 2878,
    "##nali": 2879,
    "##deri": 2880,
    "aerobic": 2881,
    "##tandin": 2882,
    "##anding": 2883,
    "people": 2884,
    "was": 2885,
    "maste": 2886,
    "crowd": 2887,
    "##ffere": 2888,
    "##ferent": 2889,
    "dri": 2890,
    "##on'": 2891,
    "##cribe": 2892,
    "special": 2893,
    "acc": 2894,
    "##covery": 2895,
    "dupli": 2896,
    "##uplic": 2897,
    "##plica": 2898,
    "##licat": 2899,
    "activity": 2900,
    "##ista": 2901,
    "##door": 2902,
    "somethin": 2903,
    "##omething": 2904,
    "language": 2905,
    "disa": 2906,
    "##sabl": 2907,
    "groc": 2908,
    "##ocer": 2909,
    "##ont": 2910,
    "##thi": 2911,
    "rep": 2912,
    "fou": 2913,
    "##nda": 2914,
    "##slati": 2915,
    "break": 2916,
    "day": 2917,
    "will": 2918,
    "##mat": 2919,
    "cont": 2920,
    "outd": 2921,
    "##utdo": 2922,
    "##tdoo": 2923,
    "##ions": 2924,
    "##epe": 2925,
    "##isab": 2926,
    "##ues": 2927,
    "mond": 2928,
    "##onda": 2929,
    "should": 2930,
    "rena": 2931,
    "##enam": 2932,
    "##name": 2933,
    "##ills": 2934,
    "daughte": 2935,
    "##aughter": 2936,
    "memorie": 2937,
    "##emories": 2938,
    "audiolo": 2939,
    "##udiolog": 2940,
    "##diologi": 2941,
    "##iologis": 2942,
    "##ologist": 2943,
    "##alo": 2944,
    "##een": 2945,
    "won": 2946,
    "##cce": 2947,
    "##nding": 2948,
    "##alkin": 2949,
    "##lking": 2950,
    "##eries": 2951,
    "level": 2952,
    "##fo": 2953,
    "##ffic": 2954,
    "audit": 2955,
    "##udito": 2956,
    "##ditor": 2957,
    "##itori": 2958,
    "##toriu": 2959,
    "##orium": 2960,
    "worsh": 2961,
    "##orshi": 2962,
    "##rship": 2963,
    "diffe": 2964,
    "##iffer": 2965,
    "shopping": 2966,
    "doctor's": 2967,
    "##rsh": 2968,
    "##cel": 2969,
    "bef": 2970,
    "##efo": 2971,
    "##toma": 2972,
    "##atic": 2973,
    "##peciali": 2974,
    "##ecialis": 2975,
    "##cialist": 2976,
    "grocery": 2977,
    "meditat": 2978,
    "##editate": 2979,
    "recov": 2980,
    "##ecove": 2981,
    "gym": 2982,
    "##grams": 2983,
    "##ngi": 2984,
    "##loo": 2985,
    "##tivity": 2986,
    "run": 2987,
    "##over": 2988,
    "offi": 2989,
    "##fice": 2990,
    "auto": 2991,
    "##hre": 2992,
    "##oors": 2993,
    "##fere": 2994,
    "conversa": 2995,
    "##onversat": 2996,
    "##nversati": 2997,
    "##versatio": 2998,
    "##ersation": 2999
  }
}
