{
  "version": "1.0",
  "truncation": {
    "direction": "Right",
    "max_length": 64,
    "strategy": "LongestFirst",
    "stride": 0
  },
  "padding": {
    "strategy": {
      "Fixed": 64
    },
    "direction": "Right",
    "pad_to_multiple_of": null,
    "pad_id": 0,
    "pad_type_id": 0,
    "pad_token": "[PAD]"
  },
  "added_tokens": [
    {
      "id": 0,
      "content": "[PAD]",
      "single_word": false,
      "lstrip": false,
      "rstrip": false,
      "normalized": false,
      "special": true
    },
    {
      "id": 1,
      "content": "[UNK]",
      "single_word": false,
      "lstrip": false,
      "rstrip": false,
      "normalized": false,
      "special": true
    },
    {
      "id": 2,
      "content": "[CLS]",
      "single_word": false,
      "lstrip": false,
      "rstrip": false,
      "normalized": false,
      "special": true
    },
    {
      "id": 3,
      "content": "[SEP]",
      "single_word": false,
      "lstrip": false,
      "rstrip": false,
      "normalized": false,
      "special": true
    },
    {
      "id": 4,
      "content": "[MASK]",
      "single_word": false,
      "lstrip": false,
      "rstrip": false,
      "normalized": false,
      "special": true
    }
  ],
  "normalizer": {
    "type": "BertNormalizer",
    "clean_text": true,
    "handle_chinese_chars": true,
    "strip_accents": null,
    "lowercase": true
  },
  "pre_tokenizer": {
    "type": "BertPreTokenizer"
  },
  "post_processor": {
    "type": "TemplateProcessing",
    "single": [
      {
        "SpecialToken": {
          "id": "[CLS]",
          "type_id": 0
        }
      },
      {
        "Sequence": {
          "id": "A",
          "type_id": 0
        }
      },
      {
        "SpecialToken": {
          "id": "[SEP]",
          "type_id": 0
        }
      }
    ],
    "pair": [
      {
        "SpecialToken": {
          "id": "[CLS]",
          "type_id": 0
        }
      },
      {
        "Sequence": {
          "id": "A",
          "type_id": 0
        }
      },
      {
        "SpecialToken": {
          "id": "[SEP]",
          "type_id": 0
        }
      },
      {
        "Sequence": {
          "id": "B",
          "type_id": 1
        }
      },
      {
        "SpecialToken": {
          "id": "[SEP]",
          "type_id": 1
        }
      }
    ],
    "special_tokens": {
      "[CLS]": {
        "id": "[CLS]",
        "ids": [
          2
        ],
        "tokens": [
          "[CLS]"
        ]
      },
      "[SEP]": {
        "id": "[SEP]",
        "ids": [
          3
        ],
        "tokens": [
          "[SEP]"
        ]
      }
    }
  },
  "decoder": {
    "type": "WordPiece",
    "prefix": "##",
    "cleanup": true
  },
  "model": {
    "type": "WordPiece",
    "unk_token": "[UNK]",
    "continuing_subword_prefix": "##",
    "max_input_chars_per_word": 100,
    "vocab": {
      "[PAD]": 0,
      "[UNK]": 1,
      "[CLS]": 2,
      "[SEP]": 3,
      "[MASK]": 4,
      "!": 5,
      "$": 6,
      "%": 7,
      "&": 8,
      "'": 9,
      "(": 10,
      ")": 11,
      ",": 12,
      "-": 13,
      ".": 14,
      "/": 15,
      "0": 16,
      "1": 17,
      "2": 18,
      "3": 19,
      "4": 20,
      "5": 21,
      "6": 22,
      "7": 23,
      "8": 24,
      "9": 25,
      ":": 26,
      "?": 27,
      "a": 28,
      "b": 29,
      "d": 30,
      "e": 31,
      "f": 32,
      "g": 33,
      "i": 34,
      "j": 35,
      "l": 36,
      "m": 37,
      "o": 38,
      "p": 39,
      "s": 40,
      "t": 41,
      "u": 42,
      "x": 43,
      "—": 44,
      "’": 45,
      "the": 46,
      "of": 47,
      "and": 48,
      "in": 49,
      "to": 50,
      "was": 51,
      "he": 52,
      "is": 53,
      "as": 54,
      "for": 55,
      "on": 56,
      "with": 57,
      "that": 58,
      "it": 59,
      "by": 60,
      "at": 61,
      "from": 62,
      "her": 63,
      "##s": 64,
      "she": 65,
      "you": 66,
      "had": 67,
      "an": 68,
      "were": 69,
      "but": 70,
      "be": 71,
      "this": 72,
      "are": 73,
      "not": 74,
      "my": 75,
      "they": 76,
      "one": 77,
      "which": 78,
      "or": 79,
      "have": 80,
      "him": 81,
      "me": 82,
      "first": 83,
      "all": 84,
      "also": 85,
      "their": 86,
      "has": 87,
      "up": 88,
      "who": 89,
      "out": 90,
      "been": 91,
      "when": 92,
      "after": 93,
      "there": 94,
      "into": 95,
      "new": 96,
      "two": 97,
      "its": 98,
      "##a": 99,
      "time": 100,
      "would": 101,
      "no": 102,
      "what": 103,
      "about": 104,
      "said": 105,
      "we": 106,
      "over": 107,
      "then": 108,
      "other": 109,
      "so": 110,
      "more": 111,
      "##e": 112,
      "can": 113,
      "if": 114,
      "like": 115,
      "back": 116,
      "them": 117,
      "only": 118,
      "some": 119,
      "could": 120,
      "##i": 121,
      "where": 122,
      "just": 123,
      "##ing": 124,
      "during": 125,
      "before": 126,
      "##n": 127,
      "do": 128,
      "##o": 129,
      "made": 130,
      "school": 131,
      "through": 132,
      "than": 133,
      "now": 134,
      "years": 135,
      "most": 136,
      "world": 137,
      "between": 138,
      "down": 139,
      "well": 140,
      "three": 141,
      "##d": 142,
      "year": 143,
      "while": 144,
      "will": 145,
      "##ed": 146,
      "##r": 147,
      "##y": 148,
      "later": 149,
      "##t": 150,
      "around": 151,
      "did": 152,
      "such": 153,
      "being": 154,
      "used": 155,
      "state": 156,
      "people": 157,
      "know": 158,
      "your": 159,
      "many": 160,
      "both": 161,
      "##er": 162,
      "these": 163,
      "don": 164,
      "known": 165,
      "off": 166,
      "way": 167,
      "until": 168,
      "re": 169,
      "how": 170,
      "even": 171,
      "get": 172,
      "head": 173,
      "didn": 174,
      "##ly": 175,
      "team": 176,
      "de": 177,
      "##l": 178,
      "born": 179,
      "united": 180,
      "film": 181,
      "since": 182,
      "still": 183,
      "long": 184,
      "work": 185,
      "south": 186,
      "us": 187,
      "any": 188,
      "high": 189,
      "again": 190,
      "day": 191,
      "family": 192,
      "see": 193,
      "right": 194,
      "house": 195,
      "war": 196,
      "states": 197,
      "took": 198,
      "life": 199,
      "north": 200,
      "same": 201,
      "each": 202,
      "called": 203,
      "name": 204,
      "much": 205,
      "place": 206,
      "go": 207,
      "four": 208,
      "another": 209,
      "found": 210,
      "won": 211,
      "here": 212,
      "going": 213,
      "10": 214,
      "away": 215,
      "left": 216,
      "home": 217,
      "music": 218,
      "best": 219,
      "make": 220,
      "hand": 221,
      "number": 222,
      "never": 223,
      "last": 224,
      "john": 225,
      "very": 226,
      "take": 227,
      "end": 228,
      "good": 229,
      "too": 230,
      "following": 231,
      "released": 232,
      "game": 233,
      "little": 234,
      "##m": 235,
      "old": 236,
      "want": 237,
      "those": 238,
      "side": 239,
      "own": 240,
      "ll": 241,
      "use": 242,
      "west": 243,
      "##u": 244,
      "face": 245,
      "think": 246,
      "##es": 247,
      "##h": 248,
      "march": 249,
      "came": 250,
      "small": 251,
      "##on": 252,
      "something": 253,
      "##k": 254,
      "thought": 255,
      "along": 256,
      "went": 257,
      "our": 258,
      "august": 259,
      "12": 260,
      "few": 261,
      "show": 262,
      "member": 263,
      "##us": 264,
      "come": 265,
      "men": 266,
      "set": 267,
      "station": 268,
      "church": 269,
      "##c": 270,
      "next": 271,
      "november": 272,
      "room": 273,
      "party": 274,
      "located": 275,
      "december": 276,
      "age": 277,
      "got": 278,
      "##g": 279,
      "system": 280,
      "let": 281,
      "love": 282,
      "every": 283,
      "look": 284,
      "song": 285,
      "water": 286,
      "without": 287,
      "body": 288,
      "black": 289,
      "night": 290,
      "within": 291,
      "women": 292,
      "single": 293,
      "ve": 294,
      "building": 295,
      "river": 296,
      "white": 297,
      "started": 298,
      "##an": 299,
      "once": 300,
      "15": 301,
      "should": 302,
      "top": 303,
      "open": 304,
      "king": 305,
      "times": 306,
      "children": 307,
      "february": 308,
      "book": 309,
      "why": 310,
      "11": 311,
      "door": 312,
      "need": 313,
      "president": 314,
      "order": 315,
      "final": 316,
      "road": 317,
      "asked": 318,
      "turned": 319,
      "st": 320,
      "wanted": 321,
      "say": 322,
      "##p": 323,
      "together": 324,
      "received": 325,
      "main": 326,
      "son": 327,
      "different": 328,
      "##en": 329,
      "behind": 330,
      "power": 331,
      "football": 332,
      "voice": 333,
      "play": 334,
      "##in": 335,
      "near": 336,
      "park": 337,
      "history": 338,
      "30": 339,
      "having": 340,
      "##man": 341,
      "##al": 342,
      "point": 343,
      "help": 344,
      "english": 345,
      "street": 346,
      "late": 347,
      "hands": 348,
      "##ia": 349,
      "put": 350,
      "across": 351,
      "told": 352,
      "often": 353,
      "ever": 354,
      "french": 355,
      "six": 356,
      "red": 357,
      "days": 358,
      "light": 359,
      "find": 360,
      "tell": 361,
      "really": 362,
      "half": 363,
      "form": 364,
      "original": 365,
      "office": 366,
      "making": 367,
      "enough": 368,
      "lost": 369,
      "full": 370,
      "must": 371,
      "live": 372,
      "german": 373,
      "run": 374,
      "business": 375,
      "cup": 376,
      "might": 377,
      "17": 378,
      "short": 379,
      "ii": 380,
      "seen": 381,
      "class": 382,
      "story": 383,
      "always": 384,
      "sure": 385,
      "research": 386,
      "almost": 387,
      "##2": 388,
      "things": 389,
      "using": 390,
      "##z": 391,
      "car": 392,
      "##is": 393,
      "close": 394,
      "##1": 395,
      "better": 396,
      "free": 397,
      "support": 398,
      "control": 399,
      "##b": 400,
      "nothing": 401,
      "worked": 402,
      "others": 403,
      "record": 404,
      "big": 405,
      "level": 406,
      "anything": 407,
      "give": 408,
      "##3": 409,
      "feel": 410,
      "does": 411,
      "title": 412,
      "thing": 413,
      "feet": 414,
      "william": 415,
      "far": 416,
      "hard": 417,
      "already": 418,
      "100": 419,
      "##na": 420,
      "hall": 421,
      "heart": 422,
      "living": 423,
      "fire": 424,
      "version": 425,
      "##ers": 426,
      "##f": 427,
      "television": 428,
      "##4": 429,
      "working": 430,
      "case": 431,
      "radio": 432,
      "looking": 433,
      "least": 434,
      "total": 435,
      "keep": 436,
      "wife": 437,
      "program": 438,
      "per": 439,
      "brother": 440,
      "mind": 441,
      "special": 442,
      "##le": 443,
      "am": 444,
      "works": 445,
      "soon": 446,
      "##6": 447,
      "taken": 448,
      "##7": 449,
      "further": 450,
      "able": 451,
      "reached": 452,
      "david": 453,
      "done": 454,
      "important": 455,
      "social": 456,
      "information": 457,
      "##ic": 458,
      "##x": 459,
      "ground": 460,
      "dark": 461,
      "course": 462,
      "girl": 463,
      "instead": 464,
      "real": 465,
      "sound": 466,
      "words": 467,
      "moment": 468,
      "##te": 469,
      "someone": 470,
      "##8": 471,
      "san": 472,
      "less": 473,
      "##5": 474,
      "blue": 475,
      "al": 476,
      "india": 477,
      "taking": 478,
      "records": 479,
      "america": 480,
      "##ne": 481,
      "stop": 482,
      "outside": 483,
      "track": 484,
      "today": 485,
      "playing": 486,
      "language": 487,
      "call": 488,
      "heard": 489,
      "professional": 490,
      "low": 491,
      "miles": 492,
      "yet": 493,
      "green": 494,
      "##ie": 495,
      "trying": 496,
      "blood": 497,
      "##ton": 498,
      "everything": 499,
      "match": 500,
      "video": 501,
      "race": 502,
      "leave": 503,
      "daughter": 504,
      "points": 505,
      "change": 506,
      "move": 507,
      "tv": 508,
      "##ta": 509,
      "closed": 510,
      "ten": 511,
      "minister": 512,
      "##th": 513,
      "start": 514,
      "return": 515,
      "person": 516,
      "sea": 517,
      "release": 518,
      "similar": 519,
      "hit": 520,
      "floor": 521,
      "event": 522,
      "doing": 523,
      "care": 524,
      "training": 525,
      "week": 526,
      "needed": 527,
      "turn": 528,
      "finished": 529,
      "rather": 530,
      "news": 531,
      "health": 532,
      "sent": 533,
      "example": 534,
      "ran": 535,
      "coming": 536,
      "currently": 537,
      "yes": 538,
      "50": 539,
      "stage": 540,
      "fact": 541,
      "dead": 542,
      "says": 543,
      "friend": 544,
      "stood": 545,
      "money": 546,
      "running": 547,
      "word": 548,
      "child": 549,
      "met": 550,
      "tour": 551,
      "average": 552,
      "teams": 553,
      "minutes": 554,
      "festival": 555,
      "current": 556,
      "deep": 557,
      "kind": 558,
      "##ness": 559,
      "bed": 560,
      "added": 561,
      "table": 562,
      "route": 563,
      "available": 564,
      "idea": 565,
      "eight": 566,
      "mean": 567,
      "friends": 568,
      "schools": 569,
      "study": 570,
      "##ch": 571,
      "##um": 572,
      "institute": 573,
      "oh": 574,
      "chinese": 575,
      "sometimes": 576,
      "type": 577,
      "forward": 578,
      "talk": 579,
      "process": 580,
      "food": 581,
      "seat": 582,
      "features": 583,
      "else": 584,
      "lot": 585,
      "strong": 586,
      "russian": 587,
      "hours": 588,
      "##da": 589,
      "morning": 590,
      "dr": 591,
      "##ry": 592,
      "quickly": 593,
      "guitar": 594,
      "##w": 595,
      "list": 596,
      "##ma": 597,
      "media": 598,
      "smile": 599,
      "##rs": 600,
      "myself": 601,
      "40": 602,
      "grand": 603,
      "##el": 604,
      "##re": 605,
      "##os": 606,
      "cross": 607,
      "getting": 608,
      "alone": 609,
      "lower": 610,
      "japan": 611,
      "believe": 612,
      "changed": 613,
      "sister": 614,
      "##ar": 615,
      "hold": 616,
      "gone": 617,
      "sir": 618,
      "academy": 619,
      "rights": 620,
      "bad": 621,
      "##ist": 622,
      "bank": 623,
      "future": 624,
      "mark": 625,
      "plan": 626,
      "professor": 627,
      "longer": 628,
      "##ian": 629,
      "sat": 630,
      "walked": 631,
      "actually": 632,
      "energy": 633,
      "model": 634,
      "size": 635,
      "completed": 636,
      "data": 637,
      "##or": 638,
      "stone": 639,
      "hear": 640,
      "management": 641,
      "self": 642,
      "leaving": 643,
      "federal": 644,
      "bit": 645,
      "hot": 646,
      "independent": 647,
      "fine": 648,
      "doesn": 649,
      "##ling": 650,
      "jack": 651,
      "fall": 652,
      "stay": 653,
      "true": 654,
      "paris": 655,
      "saint": 656,
      "capital": 657,
      "spanish": 658,
      "earth": 659,
      "cut": 660,
      "writing": 661,
      "higher": 662,
      "bill": 663,
      "##as": 664,
      "stopped": 665,
      "onto": 666,
      "parts": 667,
      "security": 668,
      "saying": 669,
      "master": 670,
      "earlier": 671,
      "phone": 672,
      "matter": 673,
      "try": 674,
      "moving": 675,
      "girls": 676,
      "italian": 677,
      "standing": 678,
      "##ted": 679,
      "deal": 680,
      "mine": 681,
      "##ng": 682,
      "everyone": 683,
      "provide": 684,
      "##ville": 685,
      "via": 686,
      "heavy": 687,
      "1st": 688,
      "makes": 689,
      "##able": 690,
      "anyone": 691,
      "##ri": 692,
      "ended": 693,
      "skin": 694,
      "foreign": 695,
      "okay": 696,
      "kill": 697,
      "sun": 698,
      "hell": 699,
      "feeling": 700,
      "##ies": 701,
      "meet": 702,
      "reason": 703,
      "standard": 704,
      "meeting": 705,
      "source": 706,
      "goal": 707,
      "##ur": 708,
      "husband": 709,
      "mountain": 710,
      "covered": 711,
      "forced": 712,
      "complete": 713,
      "key": 714,
      "texas": 715,
      "channel": 716,
      "dance": 717,
      "clear": 718,
      "question": 719,
      "active": 720,
      "personal": 721,
      "sense": 722,
      "##ine": 723,
      "speed": 724,
      "hour": 725,
      "places": 726,
      "movie": 727,
      "read": 728,
      "view": 729,
      "engine": 730,
      "ask": 731,
      "ready": 732,
      "lady": 733,
      "month": 734,
      "listed": 735,
      "##de": 736,
      "manager": 737,
      "themselves": 738,
      "meant": 739,
      "##ro": 740,
      "starting": 741,
      "access": 742,
      "test": 743,
      "stand": 744,
      "catholic": 745,
      "##less": 746,
      "eye": 747,
      "##ey": 748,
      "quite": 749,
      "whether": 750,
      "offered": 751,
      "direction": 752,
      "##ion": 753,
      "paper": 754,
      "200": 755,
      "nature": 756,
      "##ha": 757,
      "except": 758,
      "computer": 759,
      "figure": 760,
      "issue": 761,
      "loss": 762,
      "die": 763,
      "ago": 764,
      "highest": 765,
      "##am": 766,
      "bring": 767,
      "goals": 768,
      "problem": 769,
      "distance": 770,
      "completely": 771,
      "location": 772,
      "drive": 773,
      "caused": 774,
      "italy": 775,
      "understand": 776,
      "wrong": 777,
      "hotel": 778,
      "comes": 779,
      "double": 780,
      "issues": 781,
      "assembly": 782,
      "bass": 783,
      "experience": 784,
      "particular": 785,
      "walk": 786,
      "talking": 787,
      "dropped": 788,
      "##ter": 789,
      "miss": 790,
      "break": 791,
      "edge": 792,
      "remember": 793,
      "train": 794,
      "bar": 795,
      "##ge": 796,
      "assistant": 797,
      "step": 798,
      "reach": 799,
      "##ll": 800,
      "##se": 801,
      "##st": 802,
      "arrived": 803,
      "##ation": 804,
      "minute": 805,
      "##nt": 806,
      "sorry": 807,
      "metal": 808,
      "##son": 809,
      "##et": 810,
      "subject": 811,
      "yeah": 812,
      "##ce": 813,
      "suddenly": 814,
      "waiting": 815,
      "trust": 816,
      "recording": 817,
      "##to": 818,
      "pass": 819,
      "zealand": 820,
      "tom": 821,
      "watch": 822,
      "cause": 823,
      "brothers": 824,
      "changes": 825,
      "fast": 826,
      "##ting": 827,
      "answer": 828,
      "straight": 829,
      "create": 830,
      "feature": 831,
      "increased": 832,
      "rate": 833,
      "el": 834,
      "overall": 835,
      "programs": 836,
      "guard": 837,
      "doctor": 838,
      "flight": 839,
      "remains": 840,
      "cost": 841,
      "##ble": 842,
      "problems": 843,
      "isn": 844,
      "pay": 845,
      "failed": 846,
      "hurt": 847,
      "fort": 848,
      "box": 849,
      "35": 850,
      "##ke": 851,
      "##ni": 852,
      "pretty": 853,
      "directly": 854,
      "allow": 855,
      "junior": 856,
      "looks": 857,
      "##tion": 858,
      "beach": 859,
      "##ive": 860,
      "oil": 861,
      "nearby": 862,
      "recent": 863,
      "cell": 864,
      "##do": 865,
      "please": 866,
      "poor": 867,
      "joe": 868,
      "prime": 869,
      "##ca": 870,
      "mile": 871,
      "closer": 872,
      "score": 873,
      "physical": 874,
      "##ous": 875,
      "specific": 876,
      "sitting": 877,
      "mom": 878,
      "supported": 879,
      "status": 880,
      "store": 881,
      "meaning": 882,
      "focus": 883,
      "frank": 884,
      "follow": 885,
      "remaining": 886,
      "##id": 887,
      "uses": 888,
      "##co": 889,
      "exactly": 890,
      "##ck": 891,
      "choice": 892,
      "note": 893,
      "color": 894,
      "kiss": 895,
      "dad": 896,
      "wind": 897,
      "ring": 898,
      "numbers": 899,
      "##ns": 900,
      "direct": 901,
      "increase": 902,
      "##no": 903,
      "goes": 904,
      "sleep": 905,
      "memory": 906,
      "code": 907,
      "value": 908,
      "safe": 909,
      "whatever": 910,
      "growing": 911,
      "pre": 912,
      "scott": 913,
      "letter": 914,
      "watching": 915,
      "##li": 916,
      "normal": 917,
      "##ment": 918,
      "multiple": 919,
      "##ba": 920,
      "daily": 921,
      "cannot": 922,
      "##ate": 923,
      "era": 924,
      "join": 925,
      "##io": 926,
      "sign": 927,
      "machine": 928,
      "stepped": 929,
      "19th": 930,
      "##led": 931,
      "appear": 932,
      "speak": 933,
      "broken": 934,
      "charge": 935,
      "##ve": 936,
      "recently": 937,
      "cd": 938,
      "soft": 939,
      "boston": 940,
      "##sa": 941,
      "quality": 942,
      "broadcast": 943,
      "jean": 944,
      "share": 945,
      "influence": 946,
      "offer": 947,
      "electric": 948,
      "reading": 949,
      "ministry": 950,
      "##by": 951,
      "cars": 952,
      "williams": 953,
      "80": 954,
      "##ti": 955,
      "pressure": 956,
      "chris": 957,
      "olympics": 958,
      "online": 959,
      "conditions": 960,
      "walking": 961,
      "needs": 962,
      "text": 963,
      "global": 964,
      "block": 965,
      "levels": 966,
      "francisco": 967,
      "dutch": 968,
      "ahead": 969,
      "twice": 970,
      "turning": 971,
      "firm": 972,
      "perfect": 973,
      "affairs": 974,
      "save": 975,
      "kitchen": 976,
      "nice": 977,
      "teacher": 978,
      "shut": 979,
      "function": 980,
      "mentioned": 981,
      "build": 982,
      "exchange": 983,
      "loved": 984,
      "percent": 985,
      "fish": 986,
      "volume": 987,
      "tonight": 988,
      "screen": 989,
      "dog": 990,
      "##ja": 991,
      "bus": 992,
      "none": 993,
      "lay": 994,
      "finish": 995,
      "fully": 996,
      "page": 997,
      "jersey": 998,
      "advanced": 999,
      "basic": 1000,
      "90": 1001,
      "pair": 1002,
      "equipment": 1003,
      "visit": 1004,
      "evening": 1005,
      "search": 1006,
      "solo": 1007,
      "treatment": 1008,
      "bottom": 1009,
      "remain": 1010,
      "spot": 1011,
      "contact": 1012,
      "ed": 1013,
      "soul": 1014,
      "ways": 1015,
      "del": 1016,
      "losing": 1017,
      "price": 1018,
      "questions": 1019,
      "##ina": 1020,
      "memorial": 1021,
      "initial": 1022,
      "##ization": 1023,
      "##go": 1024,
      "strength": 1025,
      "00": 1026,
      "card": 1027,
      "software": 1028,
      "supposed": 1029,
      "com": 1030,
      "pro": 1031,
      "##at": 1032,
      "activity": 1033,
      "seem": 1034,
      "traffic": 1035,
      "product": 1036,
      "agency": 1037,
      "taught": 1038,
      "comedy": 1039,
      "unable": 1040,
      "storm": 1041,
      "environment": 1042,
      "##hi": 1043,
      "damage": 1044,
      "mount": 1045,
      "pick": 1046,
      "##der": 1047,
      "empty": 1048,
      "sort": 1049,
      "thank": 1050,
      "alex": 1051,
      "operating": 1052,
      "learning": 1053,
      "steps": 1054,
      "sweet": 1055,
      "begin": 1056,
      "easily": 1057,
      "teeth": 1058,
      "speaking": 1059,
      "scale": 1060,
      "##sh": 1061,
      "max": 1062,
      "##rd": 1063,
      "pieces": 1064,
      "tony": 1065,
      "combined": 1066,
      "wants": 1067,
      "telling": 1068,
      "sit": 1069,
      "##lo": 1070,
      "pull": 1071,
      "##ot": 1072,
      "wearing": 1073,
      "happen": 1074,
      "gets": 1075,
      "languages": 1076,
      "coffee": 1077,
      "##q": 1078,
      "concert": 1079,
      "sounds": 1080,
      "jazz": 1081,
      "brain": 1082,
      "##me": 1083,
      "count": 1084,
      "##den": 1085,
      "##it": 1086,
      "returning": 1087,
      "surrounding": 1088,
      "connected": 1089,
      "rome": 1090,
      "medicine": 1091,
      "tall": 1092,
      "shared": 1093,
      "falls": 1094,
      "calling": 1095,
      "##ad": 1096,
      "silence": 1097,
      "##que": 1098,
      "moon": 1099,
      "christmas": 1100,
      "##les": 1101,
      "quick": 1102,
      "quiet": 1103,
      "impact": 1104,
      "partner": 1105,
      "flat": 1106,
      "theater": 1107,
      "##tor": 1108,
      "plants": 1109,
      "##age": 1110,
      "models": 1111,
      "worth": 1112,
      "background": 1113,
      "thanks": 1114,
      "kong": 1115,
      "hong": 1116,
      "setting": 1117,
      "wish": 1118,
      "##di": 1119,
      "crowd": 1120,
      "stomach": 1121,
      "tone": 1122,
      "##ir": 1123,
      "vehicle": 1124,
      "dry": 1125,
      "strange": 1126,
      "##mi": 1127,
      "politics": 1128,
      "turns": 1129,
      "silent": 1130,
      "relief": 1131,
      "shape": 1132,
      "write": 1133,
      "hosted": 1134,
      "##est": 1135,
      "keeping": 1136,
      "guys": 1137,
      "##ze": 1138,
      "en": 1139,
      "receive": 1140,
      "twelve": 1141,
      "##well": 1142,
      "##ated": 1143,
      "tight": 1144,
      "trouble": 1145,
      "drink": 1146,
      "missing": 1147,
      "##ee": 1148,
      "clearly": 1149,
      "marked": 1150,
      "connection": 1151,
      "reasons": 1152,
      "driving": 1153,
      "jesus": 1154,
      "nose": 1155,
      "calls": 1156,
      "sunday": 1157,
      "extra": 1158,
      "message": 1159,
      "materials": 1160,
      "citizens": 1161,
      "di": 1162,
      "difference": 1163,
      "##ov": 1164,
      "shop": 1165,
      "entirely": 1166,
      "##pa": 1167,
      "pressed": 1168,
      "barely": 1169,
      "conversation": 1170,
      "stock": 1171,
      "sets": 1172,
      "eat": 1173,
      "##ps": 1174,
      "bag": 1175,
      "creating": 1176,
      "drop": 1177,
      "finding": 1178,
      "cricket": 1179,
      "ride": 1180,
      "target": 1181,
      "ear": 1182,
      "explained": 1183,
      "rain": 1184,
      "clean": 1185,
      "learn": 1186,
      "maximum": 1187,
      "lose": 1188,
      "jose": 1189,
      "fun": 1190,
      "##tes": 1191,
      "##way": 1192,
      "##house": 1193,
      "lyrics": 1194,
      "##tic": 1195,
      "##ger": 1196,
      "dinner": 1197,
      "lights": 1198,
      "send": 1199,
      "bowl": 1200,
      "catch": 1201,
      "##un": 1202,
      "speech": 1203,
      "desk": 1204,
      "starts": 1205,
      "sharp": 1206,
      "##ant": 1207,
      "weather": 1208,
      "falling": 1209,
      "check": 1210,
      "##burg": 1211,
      "application": 1212,
      "##ura": 1213,
      "condition": 1214,
      "transfer": 1215,
      "display": 1216,
      "##ding": 1217,
      "aid": 1218,
      "lie": 1219,
      "mobile": 1220,
      "perform": 1221,
      "wonder": 1222,
      "crazy": 1223,
      "##ping": 1224,
      "##ize": 1225,
      "interested": 1226,
      "task": 1227,
      "##ay": 1228,
      "##ging": 1229,
      "programming": 1230,
      "worry": 1231,
      "signal": 1232,
      "truck": 1233,
      "programme": 1234,
      "##ol": 1235,
      "ad": 1236,
      "patrick": 1237,
      "carrying": 1238,
      "##ss": 1239,
      "showing": 1240,
      "##ent": 1241,
      "address": 1242,
      "planet": 1243,
      "##tt": 1244,
      "##be": 1245,
      "worse": 1246,
      "##ky": 1247,
      "communication": 1248,
      "ford": 1249,
      "##ak": 1250,
      "##ial": 1251,
      "##han": 1252,
      "understanding": 1253,
      "restaurant": 1254,
      "tomorrow": 1255,
      "christ": 1256,
      "##per": 1257,
      "kid": 1258,
      "suit": 1259,
      "asking": 1260,
      "angry": 1261,
      "thin": 1262,
      "finds": 1263,
      "##nd": 1264,
      "temperature": 1265,
      "explain": 1266,
      "flowers": 1267,
      "somewhere": 1268,
      "##ls": 1269,
      "weekly": 1270,
      "##ai": 1271,
      "##au": 1272,
      "##ny": 1273,
      "##ring": 1274,
      "un": 1275,
      "roll": 1276,
      "anymore": 1277,
      "##ut": 1278,
      "fit": 1279,
      "breaking": 1280,
      "specifically": 1281,
      "iv": 1282,
      "credit": 1283,
      "wear": 1284,
      "hey": 1285,
      "stuff": 1286,
      "cat": 1287,
      "sub": 1288,
      "map": 1289,
      "listen": 1290,
      "wet": 1291,
      "introduction": 1292,
      "link": 1293,
      "ep": 1294,
      "buy": 1295,
      "khan": 1296,
      "##head": 1297,
      "hits": 1298,
      "provincial": 1299,
      "hearing": 1300,
      "aren": 1301,
      "lap": 1302,
      "ma": 1303,
      "noise": 1304,
      "##ium": 1305,
      "guide": 1306,
      "##mer": 1307,
      "equal": 1308,
      "bringing": 1309,
      "afternoon": 1310,
      "wedding": 1311,
      "canal": 1312,
      "handle": 1313,
      "##pe": 1314,
      "##sen": 1315,
      "wrapped": 1316,
      "notice": 1317,
      "pink": 1318,
      "##ong": 1319,
      "device": 1320,
      "progress": 1321,
      "forever": 1322,
      "##bo": 1323,
      "saturday": 1324,
      "sale": 1325,
      "##ds": 1326,
      "gain": 1327,
      "scheduled": 1328,
      "clock": 1329,
      "plate": 1330,
      "putting": 1331,
      "##ries": 1332,
      "minnesota": 1333,
      "accept": 1334,
      "folk": 1335,
      "usual": 1336,
      "items": 1337,
      "##ide": 1338,
      "loud": 1339,
      "engines": 1340,
      "session": 1341,
      "request": 1342,
      "stupid": 1343,
      "##ea": 1344,
      "##ms": 1345,
      "push": 1346,
      "wake": 1347,
      "##nes": 1348,
      "locations": 1349,
      "changing": 1350,
      "##don": 1351,
      "vol": 1352,
      "forget": 1353,
      "massive": 1354,
      "burned": 1355,
      "##mo": 1356,
      "user": 1357,
      "##pur": 1358,
      "##ul": 1359,
      "crisis": 1360,
      "cards": 1361,
      "##si": 1362,
      "raise": 1363,
      "improve": 1364,
      "charged": 1365,
      "##rt": 1366,
      "lucky": 1367,
      "faces": 1368,
      "##ell": 1369,
      "weekend": 1370,
      "cash": 1371,
      "fallen": 1372,
      "##om": 1373,
      "##he": 1374,
      "proper": 1375,
      "assistance": 1376,
      "jump": 1377,
      "constant": 1378,
      "800": 1379,
      "##ure": 1380,
      "##ara": 1381,
      "cycle": 1382,
      "##che": 1383,
      "beer": 1384,
      "gotten": 1385,
      "eleven": 1386,
      "weak": 1387,
      "bond": 1388,
      "translated": 1389,
      "lip": 1390,
      "capture": 1391,
      "insurance": 1392,
      "##chi": 1393,
      "feed": 1394,
      "golf": 1395,
      "favorite": 1396,
      "degrees": 1397,
      "translation": 1398,
      "choose": 1399,
      "confused": 1400,
      "tired": 1401,
      "stream": 1402,
      "throw": 1403,
      "measure": 1404,
      "mining": 1405,
      "sand": 1406,
      "##ker": 1407,
      "steam": 1408,
      "tie": 1409,
      "7th": 1410,
      "taste": 1411,
      "faster": 1412,
      "twin": 1413,
      "##ran": 1414,
      "tokyo": 1415,
      "##tone": 1416,
      "cousin": 1417,
      "reduce": 1418,
      "mode": 1419,
      "ears": 1420,
      "saved": 1421,
      "##jo": 1422,
      "riding": 1423,
      "roughly": 1424,
      "##ise": 1425,
      "parking": 1426,
      "##ning": 1427,
      "physics": 1428,
      "add": 1429,
      "gift": 1430,
      "##red": 1431,
      "letting": 1432,
      "##gh": 1433,
      "testing": 1434,
      "##hip": 1435,
      "shoot": 1436,
      "grandfather": 1437,
      "##one": 1438,
      "##ons": 1439,
      "alice": 1440,
      "##ang": 1441,
      "forty": 1442,
      "cook": 1443,
      "##cy": 1444,
      "##ors": 1445,
      "shift": 1446,
      "replace": 1447,
      "rio": 1448,
      "##ber": 1449,
      "feels": 1450,
      "##and": 1451,
      "hanging": 1452,
      "hunt": 1453,
      "busy": 1454,
      "sugar": 1455,
      "balance": 1456,
      "##im": 1457,
      "zero": 1458,
      "option": 1459,
      "devices": 1460,
      "##vi": 1461,
      "smooth": 1462,
      "audio": 1463,
      "voices": 1464,
      "memories": 1465,
      "pure": 1466,
      "measures": 1467,
      "indicate": 1468,
      "benefit": 1469,
      "dublin": 1470,
      "rice": 1471,
      "survive": 1472,
      "rating": 1473,
      "##tan": 1474,
      "##tus": 1475,
      "kennedy": 1476,
      "heading": 1477,
      "moves": 1478,
      "cable": 1479,
      "##out": 1480,
      "jobs": 1481,
      "##gi": 1482,
      "##gate": 1483,
      "las": 1484,
      "visiting": 1485,
      "##water": 1486,
      "stuck": 1487,
      "speaker": 1488,
      "##her": 1489,
      "##nce": 1490,
      "tools": 1491,
      "##bs": 1492,
      "suicide": 1493,
      "kick": 1494,
      "sees": 1495,
      "rough": 1496,
      "friday": 1497,
      "poem": 1498,
      "listening": 1499,
      "##back": 1500,
      "differences": 1501,
      "anywhere": 1502,
      "##more": 1503,
      "portugal": 1504,
      "orleans": 1505,
      "expect": 1506,
      "struggle": 1507,
      "shoes": 1508,
      "beating": 1509,
      "sending": 1510,
      "marks": 1511,
      "##tive": 1512,
      "##izing": 1513,
      "maintenance": 1514,
      "##yn": 1515,
      "fill": 1516,
      "battery": 1517,
      "smart": 1518,
      "funny": 1519,
      "loose": 1520,
      "##res": 1521,
      "shake": 1522,
      "easier": 1523,
      "appointment": 1524,
      "cloud": 1525,
      "voiced": 1526,
      "jerry": 1527,
      "manage": 1528,
      "schedule": 1529,
      "backed": 1530,
      "exit": 1531,
      "sing": 1532,
      "adventure": 1533,
      "cap": 1534,
      "useful": 1535,
      "##shi": 1536,
      "##work": 1537,
      "##ft": 1538,
      "apple": 1539,
      "definition": 1540,
      "baltimore": 1541,
      "till": 1542,
      "happening": 1543,
      "meat": 1544,
      "sentence": 1545,
      "document": 1546,
      "minimum": 1547,
      "cutting": 1548,
      "##board": 1549,
      "##up": 1550,
      "15th": 1551,
      "ah": 1552,
      "##gy": 1553,
      "meetings": 1554,
      "spell": 1555,
      "##ver": 1556,
      "customers": 1557,
      "##ac": 1558,
      "logan": 1559,
      "keys": 1560,
      "coverage": 1561,
      "external": 1562,
      "il": 1563,
      "lift": 1564,
      "profile": 1565,
      "##su": 1566,
      "achievement": 1567,
      "74": 1568,
      "remove": 1569,
      "intense": 1570,
      "##ld": 1571,
      "burn": 1572,
      "manual": 1573,
      "tag": 1574,
      "stronger": 1575,
      "happens": 1576,
      "output": 1577,
      "barbara": 1578,
      "##port": 1579,
      "##ram": 1580,
      "expensive": 1581,
      "electricity": 1582,
      "##ving": 1583,
      "shower": 1584,
      "button": 1585,
      "jury": 1586,
      "##tra": 1587,
      "##so": 1588,
      "milk": 1589,
      "indians": 1590,
      "##sy": 1591,
      "assist": 1592,
      "pitch": 1593,
      "alpha": 1594,
      "remote": 1595,
      "##ics": 1596,
      "##ok": 1597,
      "##ming": 1598,
      "teach": 1599,
      "searching": 1600,
      "suggest": 1601,
      "##ct": 1602,
      "staying": 1603,
      "managing": 1604,
      "terry": 1605,
      "##ice": 1606,
      "apply": 1607,
      "fuck": 1608,
      "comfortable": 1609,
      "taiwan": 1610,
      "sharing": 1611,
      "##lia": 1612,
      "##em": 1613,
      "bet": 1614,
      "##rin": 1615,
      "benefits": 1616,
      "perfectly": 1617,
      "mall": 1618,
      "##ye": 1619,
      "hardly": 1620,
      "parent": 1621,
      "##ua": 1622,
      "volumes": 1623,
      "latest": 1624,
      "mess": 1625,
      "rated": 1626,
      "##ano": 1627,
      "stops": 1628,
      "eggs": 1629,
      "##vo": 1630,
      "delhi": 1631,
      "affair": 1632,
      "##ach": 1633,
      "##ev": 1634,
      "##ud": 1635,
      "technologies": 1636,
      "##ata": 1637,
      "distant": 1638,
      "##ho": 1639,
      "##ru": 1640,
      "##rn": 1641,
      "hebrew": 1642,
      "respond": 1643,
      "videos": 1644,
      "boots": 1645,
      "automatic": 1646,
      "ph": 1647,
      "exercise": 1648,
      "dramatic": 1649,
      "citizen": 1650,
      "monday": 1651,
      "switch": 1652,
      "reminded": 1653,
      "scream": 1654,
      "##hu": 1655,
      "texts": 1656,
      "tool": 1657,
      "##fa": 1658,
      "percentage": 1659,
      "ss": 1660,
      "telephone": 1661,
      "checked": 1662,
      "options": 1663,
      "angels": 1664,
      "monthly": 1665,
      "##tory": 1666,
      "absolutely": 1667,
      "##ani": 1668,
      "##hill": 1669,
      "##ston": 1670,
      "helps": 1671,
      "gentle": 1672,
      "vegas": 1673,
      "##light": 1674,
      "##ou": 1675,
      "mini": 1676,
      "indoor": 1677,
      "load": 1678,
      "updated": 1679,
      "connecting": 1680,
      "arrive": 1681,
      "repair": 1682,
      "nearest": 1683,
      "comfort": 1684,
      "radar": 1685,
      "pine": 1686,
      "bid": 1687,
      "recovery": 1688,
      "therapy": 1689,
      "##off": 1690,
      "outdoor": 1691,
      "exclusive": 1692,
      "##dra": 1693,
      "winds": 1694,
      "publicly": 1695,
      "##ys": 1696,
      "select": 1697,
      "ticket": 1698,
      "##time": 1699,
      "hitting": 1700,
      "mask": 1701,
      "reduction": 1702,
      "##tis": 1703,
      "wire": 1704,
      "knock": 1705,
      "duncan": 1706,
      "##ros": 1707,
      "##op": 1708,
      "##rie": 1709,
      "##sha": 1710,
      "garage": 1711,
      "furniture": 1712,
      "settle": 1713,
      "##ei": 1714,
      "porch": 1715,
      "worship": 1716,
      "fourteen": 1717,
      "doctors": 1718,
      "##ire": 1719,
      "##wan": 1720,
      "pc": 1721,
      "yesterday": 1722,
      "virtual": 1723,
      "##let": 1724,
      "screaming": 1725,
      "speakers": 1726,
      "ease": 1727,
      "beam": 1728,
      "##cha": 1729,
      "dropping": 1730,
      "sweat": 1731,
      "discover": 1732,
      "initiated": 1733,
      "connect": 1734,
      "pleased": 1735,
      "##ction": 1736,
      "riley": 1737,
      "##tar": 1738,
      "plenty": 1739,
      "trick": 1740,
      "##med": 1741,
      "##ette": 1742,
      "abilities": 1743,
      "sensitive": 1744,
      "hello": 1745,
      "measured": 1746,
      "rocket": 1747,
      "amsterdam": 1748,
      "inn": 1749,
      "pm": 1750,
      "absolute": 1751,
      "suite": 1752,
      "##tin": 1753,
      "##lu": 1754,
      "hi": 1755,
      "burns": 1756,
      "serial": 1757,
      "scores": 1758,
      "##ward": 1759,
      "cuts": 1760,
      "custom": 1761,
      "cafe": 1762,
      "substitute": 1763,
      "stretch": 1764,
      "##ched": 1765,
      "messages": 1766,
      "##down": 1767,
      "controls": 1768,
      "##mic": 1769,
      "##od": 1770,
      "##ivity": 1771,
      "##sing": 1772,
      "dylan": 1773,
      "dining": 1774,
      "photos": 1775,
      "plates": 1776,
      "slept": 1777,
      "##ified": 1778,
      "aspect": 1779,
      "soap": 1780,
      "shorter": 1781,
      "tough": 1782,
      "directions": 1783,
      "##mes": 1784,
      "##over": 1785,
      "sa": 1786,
      "##mar": 1787,
      "bread": 1788,
      "youtube": 1789,
      "##ere": 1790,
      "##cus": 1791,
      "##ab": 1792,
      "glasses": 1793,
      "restaurants": 1794,
      "##hs": 1795,
      "instruction": 1796,
      "keeps": 1797,
      "uh": 1798,
      "##tre": 1799,
      "fastest": 1800,
      "properly": 1801,
      "ok": 1802,
      "##rus": 1803,
      "##sey": 1804,
      "input": 1805,
      "everybody": 1806,
      "kinds": 1807,
      "##fe": 1808,
      "healthy": 1809,
      "wise": 1810,
      "##ess": 1811,
      "##ew": 1812,
      "chicken": 1813,
      "bike": 1814,
      "veteran": 1815,
      "customer": 1816,
      "intensity": 1817,
      "##lar": 1818,
      "##burn": 1819,
      "curious": 1820,
      "##my": 1821,
      "symptoms": 1822,
      "##nie": 1823,
      "quit": 1824,
      "oriented": 1825,
      "fundamental": 1826,
      "hardware": 1827,
      "##ware": 1828,
      "automatically": 1829,
      "monitor": 1830,
      "fix": 1831,
      "struggling": 1832,
      "##hr": 1833,
      "calendar": 1834,
      "##all": 1835,
      "hook": 1836,
      "##ain": 1837,
      "deliver": 1838,
      "min": 1839,
      "instructions": 1840,
      "faint": 1841,
      "innovation": 1842,
      "situations": 1843,
      "engagement": 1844,
      "##ven": 1845,
      "##our": 1846,
      "##ments": 1847,
      "##har": 1848,
      "twins": 1849,
      "jo": 1850,
      "pulse": 1851,
      "usage": 1852,
      "##mon": 1853,
      "mutual": 1854,
      "dame": 1855,
      "enormous": 1856,
      "google": 1857,
      "##bar": 1858,
      "##nik": 1859,
      "fucking": 1860,
      "veterans": 1861,
      "brush": 1862,
      "joke": 1863,
      "##low": 1864,
      "woke": 1865,
      "floating": 1866,
      "interface": 1867,
      "auto": 1868,
      "##bus": 1869,
      "releasing": 1870,
      "dies": 1871,
      "interaction": 1872,
      "somebody": 1873,
      "fabric": 1874,
      "accurate": 1875,
      "##tha": 1876,
      "specialist": 1877,
      "fluid": 1878,
      "resting": 1879,
      "improvements": 1880,
      "180": 1881,
      "aids": 1882,
      "receiver": 1883,
      "harsh": 1884,
      "sony": 1885,
      "cooking": 1886,
      "##art": 1887,
      "##ges": 1888,
      "##ching": 1889,
      "##ome": 1890,
      "invitation": 1891,
      "rod": 1892,
      "arrives": 1893,
      "##ag": 1894,
      "mud": 1895,
      "##ions": 1896,
      "maintaining": 1897,
      "thunder": 1898,
      "dome": 1899,
      "##yl": 1900,
      "##las": 1901,
      "##tu": 1902,
      "engage": 1903,
      "um": 1904,
      "maggie": 1905,
      "##non": 1906,
      "creator": 1907,
      "##we": 1908,
      "##ord": 1909,
      "##use": 1910,
      "quantum": 1911,
      "##du": 1912,
      "##bu": 1913,
      "crack": 1914,
      "##ses": 1915,
      "##view": 1916,
      "##ec": 1917,
      "##ill": 1918,
      "cruise": 1919,
      "alarm": 1920,
      "daddy": 1921,
      "guidance": 1922,
      "##ings": 1923,
      "spare": 1924,
      "##und": 1925,
      "permanently": 1926,
      "##og": 1927,
      "##book": 1928,
      "##chen": 1929,
      "##con": 1930,
      "pipe": 1931,
      "ba": 1932,
      "##ack": 1933,
      "tune": 1934,
      "##master": 1935,
      "pause": 1936,
      "fisher": 1937,
      "farther": 1938,
      "##mp": 1939,
      "##ert": 1940,
      "##lie": 1941,
      "##ify": 1942,
      "##box": 1943,
      "##eo": 1944,
      "math": 1945,
      "##ual": 1946,
      "sometime": 1947,
      "##osa": 1948,
      "monitoring": 1949,
      "ate": 1950,
      "invented": 1951,
      "ps": 1952,
      "log": 1953,
      "lo": 1954,
      "relay": 1955,
      "explore": 1956,
      "washed": 1957,
      "##fi": 1958,
      "item": 1959,
      "##das": 1960,
      "counted": 1961,
      "seated": 1962,
      "id": 1963,
      "##oe": 1964,
      "##nda": 1965,
      "##nk": 1966,
      "##ugh": 1967,
      "introduce": 1968,
      "handled": 1969,
      "alley": 1970,
      "recover": 1971,
      "patch": 1972,
      "##com": 1973,
      "searched": 1974,
      "##bad": 1975,
      "##ification": 1976,
      "##dia": 1977,
      "si": 1978,
      "pub": 1979,
      "##els": 1980,
      "echo": 1981,
      "bye": 1982,
      "galaxy": 1983,
      "tan": 1984,
      "trans": 1985,
      "bowling": 1986,
      "toy": 1987,
      "permit": 1988,
      "##wi": 1989,
      "##sta": 1990,
      "genes": 1991,
      "swift": 1992,
      "casting": 1993,
      "hank": 1994,
      "##tv": 1995,
      "halt": 1996,
      "brave": 1997,
      "doi": 1998,
      "streams": 1999,
      "##urs": 2000,
      "restore": 2001,
      "##del": 2002,
      "dee": 2003,
      "rent": 2004,
      "##tions": 2005,
      "##cal": 2006,
      "chelsea": 2007,
      "##bank": 2008,
      "##works": 2009,
      "wednesday": 2010,
      "##wing": 2011,
      "canon": 2012,
      "##ap": 2013,
      "##ws": 2014,
      "##mas": 2015,
      "##can": 2016,
      "cleaning": 2017,
      "closet": 2018,
      "clinic": 2019,
      "rat": 2020,
      "ac": 2021,
      "checking": 2022,
      "##sco": 2023,
      "define": 2024,
      "aggressive": 2025,
      "repeat": 2026,
      "wash": 2027,
      "jam": 2028,
      "sounding": 2029,
      "##pp": 2030,
      "valid": 2031,
      "dealt": 2032,
      "er": 2033,
      "intelligent": 2034,
      "thursday": 2035,
      "rid": 2036,
      "##ale": 2037,
      "##ile": 2038,
      "##cc": 2039,
      "forgot": 2040,
      "relax": 2041,
      "trigger": 2042,
      "##away": 2043,
      "alert": 2044,
      "con": 2045,
      "tore": 2046,
      "##oo": 2047,
      "tin": 2048,
      "configuration": 2049,
      "enable": 2050,
      "mo": 2051,
      "chi": 2052,
      "solve": 2053,
      "huh": 2054,
      "ana": 2055,
      "##ces": 2056,
      "##mont": 2057,
      "tracking": 2058,
      "cycling": 2059,
      "es": 2060,
      "safely": 2061,
      "demo": 2062,
      "ap": 2063,
      "##bling": 2064,
      "gym": 2065,
      "amazon": 2066,
      "tickets": 2067,
      "##pm": 2068,
      "##pan": 2069,
      "stark": 2070,
      "disabled": 2071,
      "choices": 2072,
      "##hus": 2073,
      "honestly": 2074,
      "##tel": 2075,
      "pounding": 2076,
      "dish": 2077,
      "cake": 2078,
      "settling": 2079,
      "measuring": 2080,
      "tuesday": 2081,
      "capabilities": 2082,
      "##list": 2083,
      "##phone": 2084,
      "trend": 2085,
      "swim": 2086,
      "decrease": 2087,
      "##cho": 2088,
      "lately": 2089,
      "##ree": 2090,
      "ai": 2091,
      "wireless": 2092,
      "##room": 2093,
      "##car": 2094,
      "##min": 2095,
      "##bra": 2096,
      "presenter": 2097,
      "im": 2098,
      "##ori": 2099,
      "upright": 2100,
      "##long": 2101,
      "##oc": 2102,
      "edit": 2103,
      "##nne": 2104,
      "tel": 2105,
      "everyday": 2106,
      "##ence": 2107,
      "##if": 2108,
      "bicycle": 2109,
      "wow": 2110,
      "calculated": 2111,
      "backup": 2112,
      "pump": 2113,
      "lou": 2114,
      "ton": 2115,
      "wrap": 2116,
      "odds": 2117,
      "tips": 2118,
      "cal": 2119,
      "sends": 2120,
      "##fl": 2121,
      "##day": 2122,
      "##lf": 2123,
      "##fire": 2124,
      "batteries": 2125,
      "##ex": 2126,
      "notre": 2127,
      "beats": 2128,
      "politically": 2129,
      "counting": 2130,
      "separately": 2131,
      "ribs": 2132,
      "gaming": 2133,
      "##like": 2134,
      "email": 2135,
      "ch": 2136,
      "contacts": 2137,
      "tapped": 2138,
      "##ute": 2139,
      "adjusted": 2140,
      "sunset": 2141,
      "lamp": 2142,
      "app": 2143,
      "dishes": 2144,
      "altogether": 2145,
      "convert": 2146,
      "demonstration": 2147,
      "basically": 2148,
      "smallest": 2149,
      "##los": 2150,
      "##end": 2151,
      "bee": 2152,
      "react": 2153,
      "fitness": 2154,
      "##dis": 2155,
      "reliable": 2156,
      "decreased": 2157,
      "induced": 2158,
      "swallow": 2159,
      "demonstrate": 2160,
      "##ines": 2161,
      "##ough": 2162,
      "damp": 2163,
      "##ami": 2164,
      "dull": 2165,
      "communicate": 2166,
      "##tch": 2167,
      "update": 2168,
      "myth": 2169,
      "resolve": 2170,
      "sharon": 2171,
      "sofa": 2172,
      "swords": 2173,
      "recurring": 2174,
      "##nn": 2175,
      "##ave": 2176,
      "##oni": 2177,
      "##cation": 2178,
      "##logist": 2179,
      "pizza": 2180,
      "upward": 2181,
      "##the": 2182,
      "static": 2183,
      "detection": 2184,
      "crowded": 2185,
      "provider": 2186,
      "##ple": 2187,
      "shoe": 2188,
      "remind": 2189,
      "overwhelming": 2190,
      "##cu": 2191,
      "##rm": 2192,
      "juice": 2193,
      "fi": 2194,
      "vacation": 2195,
      "settings": 2196,
      "charleston": 2197,
      "organize": 2198,
      "warrant": 2199,
      "danced": 2200,
      "commands": 2201,
      "ra": 2202,
      "25th": 2203,
      "louder": 2204,
      "exciting": 2205,
      "##sion": 2206,
      "##sc": 2207,
      "##ase": 2208,
      "dawson": 2209,
      "genesis": 2210,
      "mt": 2211,
      "streaming": 2212,
      "placement": 2213,
      "dot": 2214,
      "##wind": 2215,
      "##eh": 2216,
      "tap": 2217,
      "ab": 2218,
      "##tones": 2219,
      "ups": 2220,
      "##rch": 2221,
      "##ats": 2222,
      "iso": 2223,
      "iris": 2224,
      "correctly": 2225,
      "requests": 2226,
      "cow": 2227,
      "##piece": 2228,
      "wherever": 2229,
      "##ean": 2230,
      "blowing": 2231,
      "##nu": 2232,
      "flip": 2233,
      "##ture": 2234,
      "##sel": 2235,
      "rehabilitation": 2236,
      "##of": 2237,
      "##fu": 2238,
      "##cat": 2239,
      "buttons": 2240,
      "ashes": 2241,
      "surroundings": 2242,
      "##bee": 2243,
      "filter": 2244,
      "soup": 2245,
      "tornado": 2246,
      "cedar": 2247,
      "stamp": 2248,
      "exam": 2249,
      "##vis": 2250,
      "##sse": 2251,
      "fitting": 2252,
      "genera": 2253,
      "slipping": 2254,
      "neighbor": 2255,
      "##mond": 2256,
      "auditorium": 2257,
      "revelation": 2258,
      "conversations": 2259,
      "##power": 2260,
      "##gent": 2261,
      "mel": 2262,
      "alter": 2263,
      "carnival": 2264,
      "detect": 2265,
      "##ssa": 2266,
      "noon": 2267,
      "##ip": 2268,
      "##card": 2269,
      "##gin": 2270,
      "sided": 2271,
      "differently": 2272,
      "beatles": 2273,
      "modes": 2274,
      "overnight": 2275,
      "guidelines": 2276,
      "enhance": 2277,
      "caesar": 2278,
      "##sch": 2279,
      "##ann": 2280,
      "sandwich": 2281,
      "modeling": 2282,
      "##rate": 2283,
      "transmitter": 2284,
      "container": 2285,
      "trash": 2286,
      "ga": 2287,
      "##bon": 2288,
      "syracuse": 2289,
      "dim": 2290,
      "sweep": 2291,
      "sentences": 2292,
      "##plane": 2293,
      "toe": 2294,
      "##hand": 2295,
      "##hard": 2296,
      "##ced": 2297,
      "##most": 2298,
      "##dge": 2299,
      "swinging": 2300,
      "##ash": 2301,
      "##cting": 2302,
      "hurting": 2303,
      "sympathy": 2304,
      "compatible": 2305,
      "levi": 2306,
      "caring": 2307,
      "android": 2308,
      "##dt": 2309,
      "##hir": 2310,
      "par": 2311,
      "switching": 2312,
      "##sal": 2313,
      "##fy": 2314,
      "submit": 2315,
      "dude": 2316,
      "metric": 2317,
      "##hing": 2318,
      "##ass": 2319,
      "sanders": 2320,
      "##are": 2321,
      "##atic": 2322,
      "sweetheart": 2323,
      "##tter": 2324,
      "##ub": 2325,
      "screens": 2326,
      "butter": 2327,
      "yearly": 2328,
      "##wo": 2329,
      "preference": 2330,
      "bi": 2331,
      "##face": 2332,
      "cleaned": 2333,
      "menu": 2334,
      "##ote": 2335,
      "laptop": 2336,
      "trim": 2337,
      "mon": 2338,
      "##ele": 2339,
      "##nc": 2340,
      "##mu": 2341,
      "shin": 2342,
      "functioning": 2343,
      "collaborative": 2344,
      "##ib": 2345,
      "##nse": 2346,
      "inform": 2347,
      "##own": 2348,
      "default": 2349,
      "##ther": 2350,
      "dell": 2351,
      "va": 2352,
      "binary": 2353,
      "locate": 2354,
      "folks": 2355,
      "##itt": 2356,
      "drain": 2357,
      "##ffer": 2358,
      "rockets": 2359,
      "clip": 2360,
      "disco": 2361,
      "owe": 2362,
      "fuller": 2363,
      "aloud": 2364,
      "##gging": 2365,
      "##metric": 2366,
      "buzz": 2367,
      "##making": 2368,
      "##bro": 2369,
      "summary": 2370,
      "meg": 2371,
      "tomas": 2372,
      "##bes": 2373,
      "##cut": 2374,
      "icon": 2375,
      "designing": 2376,
      "washing": 2377,
      "##hat": 2378,
      "##uck": 2379,
      "cu": 2380,
      "##band": 2381,
      "paired": 2382,
      "##its": 2383,
      "crowds": 2384,
      "tracked": 2385,
      "wendy": 2386,
      "compare": 2387,
      "recommendation": 2388,
      "retrieve": 2389,
      "##ete": 2390,
      "trends": 2391,
      "enables": 2392,
      "##lum": 2393,
      "ag": 2394,
      "mum": 2395,
      "stereo": 2396,
      "boost": 2397,
      "ip": 2398,
      "charging": 2399,
      "##cent": 2400,
      "grocery": 2401,
      "##tting": 2402,
      "grandma": 2403,
      "ringing": 2404,
      "##play": 2405,
      "##eed": 2406,
      "##sp": 2407,
      "fl": 2408,
      "##gram": 2409,
      "##tos": 2410,
      "##eng": 2411,
      "##tro": 2412,
      "##cial": 2413,
      "gram": 2414,
      "invite": 2415,
      "canceled": 2416,
      "yoga": 2417,
      "tunes": 2418,
      "##ished": 2419,
      "##elli": 2420,
      "plug": 2421,
      "##oda": 2422,
      "overwhelmed": 2423,
      "oaks": 2424,
      "ashe": 2425,
      "intel": 2426,
      "po": 2427,
      "troubles": 2428,
      "##set": 2429,
      "##ret": 2430,
      "##vie": 2431,
      "##ste": 2432,
      "sucking": 2433,
      "##lation": 2434,
      "affects": 2435,
      "whispering": 2436,
      "skip": 2437,
      "##bic": 2438,
      "scan": 2439,
      "##lish": 2440,
      "##dr": 2441,
      "brakes": 2442,
      "grandchildren": 2443,
      "counterpart": 2444,
      "##ool": 2445,
      "cr": 2446,
      "lyric": 2447,
      "##lk": 2448,
      "##ep": 2449,
      "##date": 2450,
      "##page": 2451,
      "##itis": 2452,
      "tallest": 2453,
      "gasoline": 2454,
      "dial": 2455,
      "##lated": 2456,
      "##late": 2457,
      "##nga": 2458,
      "##ake": 2459,
      "wax": 2460,
      "tablet": 2461,
      "pt": 2462,
      "exams": 2463,
      "pharmacy": 2464,
      "##ght": 2465,
      "##used": 2466,
      "bust": 2467,
      "pushes": 2468,
      "##fall": 2469,
      "braves": 2470,
      "declining": 2471,
      "##yon": 2472,
      "##hine": 2473,
      "##vers": 2474,
      "##ways": 2475,
      "helpful": 2476,
      "##some": 2477,
      "downward": 2478,
      "##ame": 2479,
      "##ented": 2480,
      "moisture": 2481,
      "##star": 2482,
      "##ost": 2483,
      "##rod": 2484,
      "##dd": 2485,
      "##30": 2486,
      "checks": 2487,
      "mu": 2488,
      "adjust": 2489,
      "lamps": 2490,
      "##form": 2491,
      "transcription": 2492,
      "##uc": 2493,
      "nutrition": 2494,
      "##isa": 2495,
      "##urn": 2496,
      "##pu": 2497,
      "##cle": 2498,
      "##aid": 2499,
      "brains": 2500,
      "##rre": 2501,
      "airs": 2502,
      "##pf": 2503,
      "##top": 2504,
      "##how": 2505,
      "capt": 2506,
      "updates": 2507,
      "halloween": 2508,
      "iconic": 2509,
      "##park": 2510,
      "##bat": 2511,
      "curls": 2512,
      "##uation": 2513,
      "rack": 2514,
      "##sl": 2515,
      "##ema": 2516,
      "##vor": 2517,
      "counterparts": 2518,
      "##oth": 2519,
      "recognizing": 2520,
      "piercing": 2521,
      "sensitivity": 2522,
      "##iss": 2523,
      "##ear": 2524,
      "##ook": 2525,
      "medication": 2526,
      "##rama": 2527,
      "##cci": 2528,
      "##dad": 2529,
      "##ede": 2530,
      "fry": 2531,
      "##mma": 2532,
      "reminder": 2533,
      "##elle": 2534,
      "sundays": 2535,
      "theo": 2536,
      "##key": 2537,
      "##chan": 2538,
      "abe": 2539,
      "##fo": 2540,
      "aide": 2541,
      "motel": 2542,
      "ren": 2543,
      "tutor": 2544,
      "incoming": 2545,
      "##has": 2546,
      "noises": 2547,
      "##iving": 2548,
      "##far": 2549,
      "implementing": 2550,
      "thee": 2551,
      "hears": 2552,
      "##lip": 2553,
      "152": 2554,
      "27th": 2555,
      "thanksgiving": 2556,
      "##tling": 2557,
      "##eter": 2558,
      "##take": 2559,
      "##rb": 2560,
      "repeating": 2561,
      "bowls": 2562,
      "##thi": 2563,
      "ada": 2564,
      "readings": 2565,
      "je": 2566,
      "pills": 2567,
      "bail": 2568,
      "pickup": 2569,
      "mast": 2570,
      "##tam": 2571,
      "##tton": 2572,
      "sm": 2573,
      "font": 2574,
      "##quest": 2575,
      "##life": 2576,
      "##run": 2577,
      "wi": 2578,
      "microphone": 2579,
      "rai": 2580,
      "##qui": 2581,
      "##wed": 2582,
      "##eet": 2583,
      "clarity": 2584,
      "##gged": 2585,
      "adapt": 2586,
      "##ais": 2587,
      "##orted": 2588,
      "orchard": 2589,
      "##mis": 2590,
      "##ride": 2591,
      "disappointing": 2592,
      "##itor": 2593,
      "##cas": 2594,
      "replay": 2595,
      "##lights": 2596,
      "diner": 2597,
      "tuned": 2598,
      "cha": 2599,
      "muffled": 2600,
      "##oft": 2601,
      "tow": 2602,
      "masks": 2603,
      "shelley": 2604,
      "##bos": 2605,
      "##eb": 2606,
      "fixing": 2607,
      "burger": 2608,
      "logging": 2609,
      "##tag": 2610,
      "reminding": 2611,
      "##lit": 2612,
      "##ug": 2613,
      "anytime": 2614,
      "suitcase": 2615,
      "vega": 2616,
      "##right": 2617,
      "pork": 2618,
      "##udge": 2619,
      "##hel": 2620,
      "##ffe": 2621,
      "ins": 2622,
      "handles": 2623,
      "##sto": 2624,
      "tex": 2625,
      "##hic": 2626,
      "##uf": 2627,
      "##aga": 2628,
      "podcast": 2629,
      "##nr": 2630,
      "mas": 2631,
      "sal": 2632,
      "##dre": 2633,
      "##gn": 2634,
      "th": 2635,
      "acc": 2636,
      "warnings": 2637,
      "evenings": 2638,
      "expo": 2639,
      "painfully": 2640,
      "##cate": 2641,
      "##fin": 2642,
      "##care": 2643,
      "nu": 2644,
      "ios": 2645,
      "converting": 2646,
      "##iver": 2647,
      "##rea": 2648,
      "##dh": 2649,
      "##ob": 2650,
      "setup": 2651,
      "##tern": 2652,
      "148": 2653,
      "diagnostic": 2654,
      "install": 2655,
      "##eno": 2656,
      "masked": 2657,
      "##bl": 2658,
      "##rel": 2659,
      "##hit": 2660,
      "accessories": 2661,
      "##amp": 2662,
      "sioux": 2663,
      "##sti": 2664,
      "##unt": 2665,
      "cafeteria": 2666,
      "soothing": 2667,
      "##ense": 2668,
      "mole": 2669,
      "##cre": 2670,
      "recommend": 2671,
      "spies": 2672,
      "confusing": 2673,
      "assistants": 2674,
      "karate": 2675,
      "weekday": 2676,
      "bump": 2677,
      "##lem": 2678,
      "##sian": 2679,
      "##not": 2680,
      "bothering": 2681,
      "##walk": 2682,
      "##dam": 2683,
      "tor": 2684,
      "compose": 2685,
      "##oot": 2686,
      "tam": 2687,
      "wills": 2688,
      "lex": 2689,
      "indicator": 2690,
      "goin": 2691,
      "##vid": 2692,
      "##pd": 2693,
      "##sea": 2694,
      "##was": 2695,
      "##ike": 2696,
      "##core": 2697,
      "pill": 2698,
      "##osh": 2699,
      "sd": 2700,
      "tuning": 2701,
      "##isi": 2702,
      "oven": 2703,
      "bp": 2704,
      "cancel": 2705,
      "tablets": 2706,
      "##rove": 2707,
      "##izer": 2708,
      "translate": 2709,
      "##gra": 2710,
      "##zzle": 2711,
      "vitamin": 2712,
      "trader": 2713,
      "##cap": 2714,
      "filters": 2715,
      "exercised": 2716,
      "initiate": 2717,
      "hedge": 2718,
      "##max": 2719,
      "ping": 2720,
      "ile": 2721,
      "profiles": 2722,
      "##80": 2723,
      "sv": 2724,
      "foam": 2725,
      "recipe": 2726,
      "fuzzy": 2727,
      "iphone": 2728,
      "isa": 2729,
      "##ffle": 2730,
      "##get": 2731,
      "##oz": 2732,
      "headlights": 2733,
      "om": 2734,
      "##screen": 2735,
      "##text": 2736,
      "peach": 2737,
      "##rden": 2738,
      "##onne": 2739,
      "mold": 2740,
      "brightness": 2741,
      "microwave": 2742,
      "##etti": 2743,
      "##keeping": 2744,
      "swelling": 2745,
      "dispatch": 2746,
      "##igh": 2747,
      "##cise": 2748,
      "##case": 2749,
      "##bot": 2750,
      "preferences": 2751,
      "##xt": 2752,
      "calculate": 2753,
      "##hari": 2754,
      "aero": 2755,
      "##int": 2756,
      "##iled": 2757,
      "drone": 2758,
      "cans": 2759,
      "streamed": 2760,
      "##ught": 2761,
      "info": 2762,
      "##loading": 2763,
      "spouse": 2764,
      "##100": 2765,
      "##erson": 2766,
      "notch": 2767,
      "##xa": 2768,
      "##eve": 2769,
      "##color": 2770,
      "apps": 2771,
      "##ight": 2772,
      "##put": 2773,
      "##uce": 2774,
      "##kind": 2775,
      "cl": 2776,
      "##tri": 2777,
      "anand": 2778,
      "##mat": 2779,
      "##eto": 2780,
      "##proof": 2781,
      "##act": 2782,
      "##ories": 2783,
      "drains": 2784,
      "##coming": 2785,
      "##mot": 2786,
      "whatsoever": 2787,
      "##rop": 2788,
      "softer": 2789,
      "adjustment": 2790,
      "kindly": 2791,
      "pandora": 2792,
      "##any": 2793,
      "##phones": 2794,
      "##uo": 2795,
      "samsung": 2796,
      "distorted": 2797,
      "intercept": 2798,
      "##sable": 2799,
      "hearings": 2800,
      "adjusting": 2801,
      "##num": 2802,
      "overview": 2803,
      "##bei": 2804,
      "##iable": 2805,
      "stimulus": 2806,
      "##oud": 2807,
      "preview": 2808,
      "insert": 2809,
      "euros": 2810,
      "bel": 2811,
      "##lica": 2812,
      "outdoors": 2813,
      "headlines": 2814,
      "##tooth": 2815,
      "connector": 2816,
      "wasp": 2817,
      "##oic": 2818,
      "##beat": 2819,
      "downhill": 2820,
      "homework": 2821,
      "##sol": 2822,
      "notified": 2823,
      "##ease": 2824,
      "##omo": 2825,
      "remotely": 2826,
      "##aud": 2827,
      "audible": 2828,
      "tally": 2829,
      "aba": 2830,
      "##aca": 2831,
      "sinatra": 2832,
      "##west": 2833,
      "##ln": 2834,
      "##fr": 2835,
      "##lea": 2836,
      "cardboard": 2837,
      "weekdays": 2838,
      "##see": 2839,
      "##now": 2840,
      "apr": 2841,
      "transmit": 2842,
      "##ink": 2843,
      "##cula": 2844,
      "ames": 2845,
      "swap": 2846,
      "med": 2847,
      "##ision": 2848,
      "##hong": 2849,
      "##wife": 2850,
      "##jer": 2851,
      "int": 2852,
      "##dled": 2853,
      "popping": 2854,
      "mute": 2855,
      "##itch": 2856,
      "##hea": 2857,
      "##udy": 2858,
      "pl": 2859,
      "aces": 2860,
      "chili": 2861,
      "geo": 2862,
      "hush": 2863,
      "##iol": 2864,
      "anal": 2865,
      "##chet": 2866,
      "##user": 2867,
      "##wire": 2868,
      "initials": 2869,
      "buzzing": 2870,
      "##tom": 2871,
      "indicators": 2872,
      "##ulu": 2873,
      "verify": 2874,
      "##lev": 2875,
      "prescription": 2876,
      "##cl": 2877,
      "##gement": 2878,
      "##stra": 2879,
      "activate": 2880,
      "##kee": 2881,
      "##eti": 2882,
      "refrain": 2883,
      "av": 2884,
      "##thing": 2885,
      "##ibe": 2886,
      "##chu": 2887,
      "weeds": 2888,
      "password": 2889,
      "##rge": 2890,
      "noisy": 2891,
      "##under": 2892,
      "ir": 2893,
      "##lean": 2894,
      "##tery": 2895,
      "bearer": 2896,
      "netflix": 2897,
      "##bet": 2898,
      "jelly": 2899,
      "##rle": 2900,
      "##ivo": 2901,
      "##fle": 2902,
      "##achi": 2903,
      "celeste": 2904,
      "##aur": 2905,
      "##cable": 2906,
      "##log": 2907,
      "333": 2908,
      "##rts": 2909,
      "##oris": 2910,
      "tome": 2911,
      "chew": 2912,
      "##uld": 2913,
      "bose": 2914,
      "simplest": 2915,
      "ib": 2916,
      "af": 2917,
      "lau": 2918,
      "myrtle": 2919,
      "##eme": 2920,
      "##working": 2921,
      "techno": 2922,
      "##stream": 2923,
      "##ivate": 2924,
      "##stand": 2925,
      "ist": 2926,
      "##pro": 2927,
      "##sett": 2928,
      "##urne": 2929,
      "##sor": 2930,
      "##icide": 2931,
      "##mber": 2932,
      "##vance": 2933,
      "##kor": 2934,
      "pe": 2935,
      "massage": 2936,
      "##drum": 2937,
      "tyre": 2938,
      "sim": 2939,
      "emails": 2940,
      "##ange": 2941,
      "clubhouse": 2942,
      "##note": 2943,
      "##bas": 2944,
      "##nea": 2945,
      "aw": 2946,
      "herring": 2947,
      "##words": 2948,
      "##dm": 2949,
      "##yt": 2950,
      "muted": 2951,
      "liv": 2952,
      "navigate": 2953,
      "##test": 2954,
      "##sho": 2955,
      "##lating": 2956,
      "##ind": 2957,
      "##turn": 2958,
      "##chang": 2959,
      "##heart": 2960,
      "enhancement": 2961,
      "sms": 2962,
      "##esa": 2963,
      "##script": 2964,
      "##rou": 2965,
      "uncomfortably": 2966,
      "##ever": 2967,
      "##ogist": 2968,
      "ich": 2969,
      "depleted": 2970,
      "##aco": 2971,
      "tailor": 2972,
      "sewing": 2973,
      "pairing": 2974,
      "shadowy": 2975,
      "##placed": 2976,
      "##sche": 2977,
      "bb": 2978,
      "hearth": 2979,
      "sl": 2980,
      "##mac": 2981,
      "howl": 2982,
      "##mit": 2983,
      "dia": 2984,
      "##roid": 2985,
      "translating": 2986,
      "brewster": 2987,
      "myra": 2988,
      "mic": 2989,
      "shuffle": 2990,
      "##alo": 2991,
      "##inn": 2992,
      "##istan": 2993,
      "concussion": 2994,
      "##cking": 2995,
      "boise": 2996,
      "nik": 2997,
      "##cript": 2998,
      "##emi": 2999,
      "dow": 3000,
      "##yse": 3001,
      "##erin": 3002,
      "ito": 3003,
      "##mple": 3004,
      "##mind": 3005,
      "##uet": 3006,
      "##hom": 3007,
      "ev": 3008,
      "##hoot": 3009,
      "elsa": 3010,
      "##fine": 3011,
      "##oise": 3012,
      "##tell": 3013,
      "togo": 3014,
      "pubs": 3015,
      "##kit": 3016,
      "ares": 3017,
      "##train": 3018,
      "disconnected": 3019,
      "##body": 3020,
      "amp": 3021,
      "##lou": 3022,
      "##ign": 3023,
      "batter": 3024,
      "##sau": 3025,
      "##door": 3026,
      "intermittent": 3027,
      "##nated": 3028,
      "##ocation": 3029,
      "assign": 3030,
      "everest": 3031,
      "##inda": 3032,
      "ek": 3033,
      "##nee": 3034,
      "transcript": 3035,
      "##ape": 3036,
      "basics": 3037,
      "adjustments": 3038,
      "##sso": 3039,
      "armory": 3040,
      "##gol": 3041,
      "##good": 3042,
      "##his": 3043,
      "##alle": 3044,
      "sausage": 3045,
      "mein": 3046,
      "##edge": 3047,
      "##connected": 3048,
      "##ump": 3049,
      "queue": 3050,
      "unbearable": 3051,
      "ia": 3052,
      "receipt": 3053,
      "##say": 3054,
      "##crow": 3055,
      "exasperated": 3056,
      "dentist": 3057,
      "##with": 3058,
      "memo": 3059,
      "clearer": 3060,
      "##tute": 3061,
      "##helm": 3062,
      "##dora": 3063,
      "ic": 3064,
      "##mori": 3065,
      "texted": 3066,
      "koreans": 3067,
      "##lth": 3068,
      "##ggle": 3069,
      "booming": 3070,
      "##teacher": 3071,
      "##ege": 3072,
      "##oca": 3073,
      "##pl": 3074,
      "##osed": 3075,
      "##iring": 3076,
      "tuna": 3077,
      "##dev": 3078,
      "pasta": 3079,
      "##kou": 3080,
      "##vac": 3081,
      "madden": 3082,
      "forte": 3083,
      "##standing": 3084,
      "dashboard": 3085,
      "##ater": 3086,
      "mana": 3087,
      "alexa": 3088,
      "##lase": 3089,
      "##lang": 3090,
      "##thesis": 3091,
      "##iti": 3092,
      "reset": 3093,
      "##sund": 3094,
      "ike": 3095,
      "##vite": 3096,
      "thrive": 3097,
      "ipad": 3098,
      "328": 3099,
      "##mini": 3100,
      "accessory": 3101,
      "##ior": 3102,
      "##tream": 3103,
      "##gli": 3104,
      "ref": 3105,
      "doorbell": 3106,
      "##agne": 3107,
      "cheered": 3108,
      "##tort": 3109,
      "##cta": 3110,
      "newt": 3111,
      "##peed": 3112,
      "undo": 3113,
      "##yd": 3114,
      "registering": 3115,
      "prompt": 3116,
      "##oint": 3117,
      "bae": 3118,
      "##rger": 3119,
      "wellness": 3120,
      "ama": 3121,
      "gan": 3122,
      "fright": 3123,
      "diva": 3124,
      "##ece": 3125,
      "##ely": 3126,
      "boil": 3127,
      "umm": 3128,
      "dail": 3129,
      "poke": 3130,
      "##sma": 3131,
      "ric": 3132,
      "transcribed": 3133,
      "blasting": 3134,
      "groceries": 3135,
      "##tua": 3136,
      "stats": 3137,
      "##tick": 3138,
      "sync": 3139,
      "iss": 3140,
      "##write": 3141,
      "##qual": 3142,
      "ami": 3143,
      "##ears": 3144,
      "salsa": 3145,
      "##tec": 3146,
      "##hear": 3147,
      "##pani": 3148,
      "##umble": 3149,
      "##cans": 3150,
      "##balance": 3151,
      "##blood": 3152,
      "##unds": 3153,
      "blackout": 3154,
      "##gno": 3155,
      "##mute": 3156,
      "##sw": 3157,
      "##cr": 3158,
      "##lates": 3159,
      "##dou": 3160,
      "notification": 3161,
      "##tance": 3162,
      "orr": 3163,
      "##open": 3164,
      "##emon": 3165,
      "##parts": 3166,
      "##going": 3167,
      "amplified": 3168,
      "##ffi": 3169,
      "##nage": 3170,
      "workout": 3171,
      "##logie": 3172,
      "##lass": 3173,
      "##cor": 3174,
      "ina": 3175,
      "adi": 3176,
      "##mum": 3177,
      "##earing": 3178,
      "stroll": 3179,
      "##music": 3180,
      "##arm": 3181,
      "windy": 3182,
      "##gur": 3183,
      "##hone": 3184,
      "##titles": 3185,
      "##frid": 3186,
      "candi": 3187,
      "quieter": 3188,
      "jena": 3189,
      "##ired": 3190,
      "##sil": 3191,
      "##person": 3192,
      "##dun": 3193,
      "##lowe": 3194,
      "##hly": 3195,
      "dispose": 3196,
      "##version": 3197,
      "jogged": 3198,
      "##fra": 3199,
      "ruining": 3200,
      "##aer": 3201,
      "##iste": 3202,
      "hammering": 3203,
      "##very": 3204,
      "crank": 3205,
      "##nction": 3206,
      "##talk": 3207,
      "##sit": 3208,
      "##week": 3209,
      "##pee": 3210,
      "stat": 3211,
      "##ssion": 3212,
      "jogging": 3213,
      "pear": 3214,
      "pip": 3215,
      "shrill": 3216,
      "##hre": 3217,
      "tumble": 3218,
      "##wee": 3219,
      "##roll": 3220,
      "##vita": 3221,
      "exercising": 3222,
      "##abi": 3223,
      "##bla": 3224,
      "##rest": 3225,
      "##wash": 3226,
      "##rem": 3227,
      "##guide": 3228,
      "##imum": 3229,
      "##rrow": 3230,
      "mis": 3231,
      "rec": 3232,
      "tod": 3233,
      "##dgets": 3234,
      "##osta": 3235,
      "spec": 3236,
      "customized": 3237,
      "ter": 3238,
      "##ici": 3239,
      "##ound": 3240,
      "##personal": 3241,
      "deafening": 3242,
      "##suit": 3243,
      "biking": 3244,
      "##weather": 3245,
      "afar": 3246,
      "biker": 3247,
      "##pres": 3248,
      "##dav": 3249,
      "##app": 3250,
      "##year": 3251,
      "##cel": 3252,
      "##hem": 3253,
      "##igen": 3254,
      "clicks": 3255,
      "##scribe": 3256,
      "carp": 3257,
      "##for": 3258,
      "##reate": 3259,
      "##you": 3260,
      "##just": 3261,
      "##umber": 3262,
      "##orro": 3263,
      "tre": 3264,
      "ie": 3265,
      "##wil": 3266
    }
  }
}